▁	76279
“	14584
”	8038
),	7973
中国	5365
)。	4872
以及	4627
政府	4547
文化	4442
中國	4403
美國	4358
包括	4335
使用	4213
世界	4169
可以	4077
日本	4068
国家	3834
其中	3657
)、	3585
▁(	3528
研究	3508
主要	3437
美国	3419
”。	3386
地区	3298
”,	3172
——	3052
人口	3035
中的	3032
▁《	2998
中央	2972
香港	2969
政治	2919
一个	2910
城市	2888
》,	2887
C	2883
▁在	2856
國家	2849
之一	2839
成为	2775
经济	2739
年出生	2731
T	2722
例如	2689
因此	2652
」,	2645
第一	2563
开始	2561
年逝世	2544
其他	2526
大学	2525
S	2502
部分	2500
民族	2466
年的	2464
成為	2411
代表	2410
全国	2394
一些	2374
P	2368
发展	2354
建立	2354
L	2343
人民	2303
社會	2295
—	2290
▁-	2269
經濟	2232
」。	2215
不同	2187
認為	2180
表示	2174
臺灣	2147
G	2137
正式	2125
▁of	2117
自然	2076
台灣	2071
上的	2056
D	2056
教育	2055
地區	2050
中心	2027
一個	2001
年代	1995
认为	1993
通过	1988
革命	1987
開始	1985
大學	1981
世纪	1973
宗教	1970
自由	1957
學家	1948
人的	1944
》(	1942
工作	1927
北京	1921
英國	1919
B	1915
發展	1895
生物	1894
时期	1891
语言	1867
支持	1865
M	1857
-{	1856
进行	1850
成立	1827
国际	1817
也是	1815
病毒	1815
作为	1788
工程	1787
社会	1786
形成	1775
中共中央	1772
他的	1768
但是	1760
思想	1759
語言	1755
主義	1752
存在	1744
的人	1722
系统	1718
上海	1711
所有	1693
方面	1682
A	1680
%,	1654
的一	1653
總統	1645
具有	1643
组织	1643
没有	1628
第二	1622
这些	1614
可能	1613
主席	1610
F	1604
细胞	1595
公司	1588
受到	1575
許多	1572
:“	1566
制度	1560
N	1550
系統	1535
运动	1532
事件	1530
法國	1521
提出	1518
管理	1515
》、《	1508
中华人民共和国	1507
▁L	1506
改革	1493
通常	1490
這些	1482
:「	1480
历史	1475
。”	1475
印度	1468
世紀	1465
%。	1464
沒有	1461
O	1457
英国	1454
一般	1453
法国	1441
战争	1438
▁C	1436
主义	1436
科学	1430
目前	1429
▁D	1416
地方	1414
由於	1407
技术	1400
增加	1397
自己	1390
影響	1385
I	1384
然而	1370
因為	1370
▁M	1370
由于	1370
重要	1369
H	1369
政策	1369
万人	1367
工业	1366
運動	1359
位于	1353
要求	1351
國際	1347
需要	1346
▁S	1346
進行	1346
方法	1342
二十	1342
也有	1338
提供	1337
同时	1333
公里	1329
都是	1325
就是	1323
这个	1319
是在	1318
皇帝	1316
民主	1311
学家	1308
E	1300
影响	1298
稱為	1297
许多	1291
▁P	1289
地球	1289
全球	1288
造成	1287
毛泽东	1283
作品	1283
太陽	1279
之后	1276
总统	1276
德国	1275
▁the	1271
Windows	1271
同時	1270
時期	1267
▁G	1264
▁B	1257
朝鲜	1252
歐洲	1251
最高	1250
铁路	1250
德國	1249
佛教	1249
使得	1248
甚至	1247
蒙古	1247
組織	1243
委员会	1242
》。	1240
人類	1236
成功	1236
基本	1232
控制	1232
会议	1224
作為	1220
任何	1216
性的	1216
所以	1215
意大利	1214
大量	1212
第三	1207
问题	1206
對於	1206
这一	1204
元素	1202
分子	1189
现代	1188
已经	1184
到了	1183
物理	1183
W	1180
之後	1178
大的	1176
他们	1175
植物	1171
文字	1169
直接	1165
得到	1163
不能	1161
中共	1160
宣布	1159
戰爭	1158
R	1157
的大	1157
只有	1152
。(	1150
平均	1148
因为	1145
活动	1145
非常	1134
▁T	1131
問題	1129
方式	1127
增长	1125
欧洲	1124
當時	1121
法律	1120
他們	1116
此外	1111
理論	1106
▁and	1105
。」	1098
}-	1098
這個	1096
歷史	1095
不同的	1093
中華民國	1093
完全	1090
成員	1089
很多	1085
当时	1085
新的	1075
利用	1068
生产	1068
通過	1067
建设	1066
发生	1064
生活	1062
期间	1062
電影	1057
音乐	1052
最大的	1052
形式	1046
並且	1044
苏联	1044
结构	1043
演員	1038
著作	1037
關係	1035
接受	1034
的是	1033
如果	1032
清朝	1032
称为	1031
方言	1027
科學	1021
定的	1019
西班牙	1013
另外	1012
理论	1009
军事	1009
根据	1007
▁R	1004
这种	998
出现	998
拥有	997
时间	995
韓國	989
学院	987
J	986
首次	985
关系	982
政治局	981
或者	979
出現	979
了一	978
現代	978
作家	977
斯特	977
共同	974
原子	974
完成	965
作用	964
程序	964
▁F	964
除了	959
数据	959
時間	958
行政	958
还有	957
获得	956
帝國	955
自己的	954
交通	953
發生	951
合作	950
地位	949
▁H	947
的主要	945
农业	945
青岛	945
,“	944
已經	944
分析	944
▁N	942
以上	942
学校	936
用于	931
朝鮮	931
巴黎	929
西方	926
委員會	925
K	924
越南	923
活動	919
不過	918
U	915
南京	913
獲得	910
”、“	909
机构	908
重新	907
两个	907
伊拉克	904
而且	902
▁=	902
()	899
大部分	899
建筑	898
;}-	897
包含	895
決定	895
▁in	894
不是	892
女性	892
天津	892
有一	891
关于	889
版本	888
hans	886
时代	884
功能	883
全國	883
之前	882
):	882
」(	880
▁|	878
一直	876
會議	876
独立	875
文件	873
同性	872
,《	870
韩国	870
长沙	868
发现	866
决定	866
直到	865
加入	865
进入	865
移民	865
子的	864
出版	864
百科	862
信仰	860
);	857
官方	855
▁W	854
歌手	854
委员	853
仍然	851
计划	846
行星	843
首都	841
▁A	840
安全	840
▁zh	835
發現	834
中華人民共和國	834
开发	831
以色列	830
位於	830
蘇聯	828
同年	824
人类	823
设立	822
标准	822
古代	821
化的	821
世界上	819
是由	819
西藏	819
這種	818
字母	818
▁/	818
X	816
”(	815
后来	814
早期	814
團體	813
湖南	811
产业	808
天文	805
康熙	805
导致	804
属于	803
產生	799
統治	798
」、「	797
人物	794
獨立	790
重要的	788
死亡	788
分为	787
传统	787
领导	787
▁*	786
V	785
根據	785
馬克	785
雖然	784
音樂	784
超过	784
东北	781
对于	780
著名	779
面积	779
軍事	775
和平	774
擁有	772
宇宙	771
王朝	770
是一	769
–	768
最後	766
第一次	766
技術	765
取得	764
长江	760
国务院	760
指出	758
普遍	758
的研究	757
時代	756
比例	756
及其	754
▁The	753
共有	753
旅游	753
後來	752
产生	751
实现	751
化学	751
学生	750
▁J	749
科技	749
化學	749
列表	748
至今	747
傳統	747
電子	745
北部	745
联合国	744
达到	742
自治	741
生產	740
南部	737
等人	733
西部	733
组成	731
是中国	730
出版社	729
电子	727
基因	726
兩個	725
平原	725
最早	724
希腊	723
加拿大	721
的新	721
ist	720
年至	719
<0xE6>	719
西南	718
副主席	718
十分	717
下的	717
信息	716
最大	714
设计	713
外交	712
者的	711
艺术	711
哲学	710
逐渐	708
重庆	707
电影	706
唐朝	705
环境	705
都有	704
om	704
拉丁	702
之间	702
企业	702
期間	701
政治人物	701
俄羅斯	700
▁,	699
<0xE7>	699
统一	699
行為	697
最终	695
導致	692
中文	692
免疫	691
反對	690
军队	690
第四	689
尼亞	689
数学	688
學者	688
我们	686
总理	685
概念	684
基础	683
▁p	683
计算机	683
公共	681
每年	680
十二	677
新加坡	677
心理	676
而在	675
保持	674
希望	673
反对	673
聯邦	673
集团	673
成都	673
▁K	672
随着	671
帝国	671
ent	670
描述	669
动物	669
之間	668
其它	668
限制	667
不少	667
来的	665
四川	665
ur	663
有的	661
ia	660
地理	658
為了	657
文明	657
普通	657
能力	657
一次	656
小平	656
比如	655
的主	655
遊戲	654
发表	653
文学	653
女演員	653
電腦	652
明朝	652
机场	652
是一个	649
著名的	648
为主	647
开放	647
伦敦	647
分為	646
▁||	645
他在	645
人口为	645
▁s	642
是否	642
文學	642
▁m	641
公元前	640
學生	639
居民	639
的地	638
软件	638
市場	638
阿拉伯	637
婚姻	637
維基	637
唯一	636
前往	636
在此	635
藝術	635
遭到	635
精神	635
结束	635
区域	635
并且	634
亿元	634
全部	633
统治	632
现在	630
各種	630
有些	627
行的	627
水平	627
瑞士	627
▁E	625
境内	624
出的	623
選舉	621
举行	621
不可	620
結構	620
ut	620
無法	620
另一	619
资源	619
必須	619
▁V	618
工業	618
女子	618
保护	617
男子	617
它们	616
人士	616
的重要	615
俄罗斯	615
<0xE9>	614
乾隆	614
的一个	612
柏林	612
杭州	609
它的	608
能够	608
波兰	608
联邦	607
,「	605
進入	605
土地	603
學院	603
国内	603
運動員	603
工具	602
平方公里	602
大臣	601
組成	600
州的	600
中國共產黨	599
某些	597
深圳	597
領域	596
OS	595
量的	594
力的	594
虽然	594
來自	594
州市	593
收入	591
核心	590
的特	590
多次	590
程度	589
阿爾	589
联合	589
航空	587
为了	585
山东	585
。《	584
機構	584
荷蘭	584
足球	584
臺北市	584
作者	582
但在	581
超過	580
以下	580
逐漸	580
广州	580
定义	579
来自	579
宪法	578
人们	576
等等	576
曹操	576
能夠	575
南北	575
目的	573
成员	573
纽约	572
爆发	572
三年	572
用的	571
生命	570
批准	570
再次	569
中国共产党	569
书记	569
天主教	568
服务	568
聯合國	567
流行	566
<0xE5>	566
天下	566
贸易	566
新疆	565
程式	564
被称为	563
同意	563
主張	563
男演員	561
去世	560
各地	560
第五	560
標準	559
只是	558
的第一	557
行動	557
等地	556
浙江	556
记载	555
<0xE8>	555
▁第	555
氧化	555
各种	554
最后	554
银行	554
占总人口	554
▁O	553
对象	552
十年	552
严重	552
纪念	551
男性	551
反应	550
有關	549
游戏	549
电视	549
區域	549
担任	549
領導	548
ation	546
ot	546
公园	546
周恩来	546
最終	544
屬於	543
商业	543
th	542
面的	542
金属	542
领域	541
以来	541
克斯	541
入侵	541
物质	540
%;	540
河南	540
分别	539
年前	539
必须	538
公民	538
不久	538
经过	537
▁大	537
恢复	537
中山	536
变化	535
取代	534
定義	531
出了	531
西北	531
軍隊	530
建成	529
基礎	528
元年	528
广泛	527
下降	527
台湾	527
▁c	526
透過	526
政權	526
▁St	525
共和国	525
軟體	525
原因	524
北方	524
設計	524
无法	524
內容	523
物質	523
開發	523
选举	523
ion	522
统计	522
制造	521
成的	520
英語	520
这是	520
相同	519
月球	519
法院	518
学习	517
基督教	517
參與	517
一种	516
部落	516
知识	515
左右	515
(),	514
相當	514
自身	513
或是	513
采用	513
发布	513
聯合	513
金融	512
集中	512
随后	512
拼音	512
同性戀	512
禁止	510
學校	509
基地	509
政权	509
哈尔滨	509
我們	508
人在	508
建築	507
继续	507
古巴	507
而是	506
貿易	505
爆發	505
项目	505
本身	504
則是	504
全市	504
表达	502
希臘	501
教授	501
批評	499
参加	499
修改	498
网络	498
气候	497
非洲	497
规模	497
位置	497
返回	497
规定	496
家庭	496
用於	496
博物館	496
土耳其	496
統一	495
方案	495
哲學	494
材料	494
資本	494
区的	494
模式	493
居住	493
出口	493
负责	493
逝世	493
理解	492
处理	492
:《	492
太阳	492
um	491
使用的	490
個人	490
一定	489
階級	489
中原	489
結果	488
提高	488
不再	488
威廉	488
得以	488
保留	488
人员	488
......	487
還有	486
系列	486
社会主义	486
行为	486
計算	485
初期	485
的原	484
古典	483
学者	483
隨著	483
三十	482
联盟	482
環境	482
市场	482
人民政府	482
比较	481
蛋白	481
民主黨	481
舉行	480
一年	480
重大	479
用户	479
擔任	479
君主	479
地的	479
澳洲	479
同盟	479
分布	478
中華	478
接近	477
之间的	477
高度	477
▁中国	477
服務	477
过程	476
聯盟	476
第一个	475
立法	475
排名	475
漢字	475
迅速	474
大陸	474
憲法	474
結束	474
同志	474
繼續	473
年间	473
國民	473
战役	473
至少	472
公元	472
召开	472
如此	471
英文	471
解释	470
解釋	470
并不	470
之外	469
近代	469
春秋	469
因素	469
主持	469
共和國	469
斯坦	468
合成	468
感染	468
發表	467
部的	467
尼亚	467
並不	466
地区的	466
体系	466
相比	466
交流	466
南方	466
武器	466
▁Windows	466
往往	465
方的	465
附近	465
体的	464
计算	464
内容	463
汉语	463
大陆	463
年起	463
半岛	463
快速	462
都市	462
按照	461
的方式	460
十三	460
疾病	460
拉斯	459
数量	459
總理	459
保護	458
部隊	458
因而	457
相对	457
高的	457
埃及	456
皇后	456
指挥	456
相關	455
而言	455
丹麦	455
是一個	455
内蒙古	455
应用	454
多的	454
约翰	454
特别	453
参与	453
森林	453
國王	453
只能	452
后的	452
引起	452
執行	452
太后	452
葡萄牙	451
中国大陆	451
是指	450
ers	450
多个	450
吸引	449
ay	449
計劃	448
相关	448
也可以	448
殖民地	448
閩南	448
數學	446
變化	446
od	446
综合	446
改變	446
大多数	446
化合物	446
人死亡	446
全省	446
结合	445
中國大陸	445
主要的	444
商業	444
ov	444
利益	444
ue	444
之中	443
有所	443
能量	443
一種	442
為主	442
出生	442
结果	441
四年	441
速度	441
产品	441
五年	441
二世	441
現在	440
有人	440
DP	440
最初	439
▁t	439
特色	439
美元	439
半島	439
王國	439
市区	439
表面	438
得主	438
▁l	438
范围	438
的政治	438
体育	438
小說	437
一起	437
报告	437
实行	437
條約	437
三个	436
历史上	436
孔子	436
最佳	436
太宗	436
開放	435
显示	435
顯示	434
之間的	434
un	434
作曲家	434
青年	434
第二次	434
济南	434
实际	433
亞洲	433
更加	433
加上	433
國會	433
大會	433
汽车	433
也被	432
調查	432
負責	432
星的	432
海洋	432
十一	431
城区	431
学科	430
).	430
▁I	430
▁d	430
力量	430
高速	430
太子	430
如何	429
義大利	429
德里	428
文章	428
文革	428
巴西	428
荷兰	428
国旗	428
現象	427
年在	427
當地	427
国的	427
占领	427
經過	426
這是	426
避免	426
▁.	426
分別	426
全面	426
相對	425
可能是	425
斯大林	425
媒体	425
反應	425
部队	425
大多數	424
发动	424
博物馆	424
是以	423
河流	423
比較	422
重点	422
遗址	422
設立	422
國的	422
規定	422
条约	422
偶像	422
關於	421
也在	421
大型	421
规划	421
的一部分	420
創作	420
美洲	420
相信	419
符号	419
命令	419
西亞	419
道德	418
羅馬	418
共和	418
蛋白质	418
遺產	418
苏州	418
少数民族	417
才能	417
执行	417
社會主義	417
一度	417
不过	416
第六	416
太空	416
Q	416
国王	416
處理	415
方向	415
最早的	415
条件	415
有关	415
DNA	415
角色	414
模型	414
▁"	414
大約	413
的分	413
罗马	413
的三	412
一世	412
The	412
範圍	412
法的	412
特別	411
类型	411
阿尔	411
權力	411
第十	411
观点	410
人們	410
表演	410
长春	410
英语	409
類似	409
医学	409
採用	409
石油	409
单位	408
職業	408
伊朗	408
制定	407
阶级	407
微軟	407
廣泛	406
▁a	406
大会	406
大多	406
相似	405
主要是	405
年底	405
国民	404
停止	404
领导人	404
河北	404
公路	404
黄河	404
有限	403
操作	403
承認	402
皇家	402
部份	401
動物	400
福建	400
的影响	399
來的	399
也不	399
產品	399
高原	399
记录	398
最多	397
通用	397
运行	397
應用	396
成了	396
政府的	396
鐵路	396
家族	396
行动	395
人工	395
以來	395
举办	395
月初	395
持續	394
資源	394
支援	394
马来西亚	394
資料	393
名的	393
海拔	393
此后	393
沿海	393
Linux	393
发达	392
的高	392
正在	392
二年	392
面積	392
确定	391
考古	391
连接	391
天然	391
地震	391
萬人	391
臺北	391
諾貝爾	390
特定	390
批判	390
記載	390
儘管	389
整个	389
價值	389
亚洲	389
高速公路	389
大约	389
知識	388
承认	388
的影響	388
yth	388
缺乏	388
十四	388
不會	387
▁ISBN	387
个人	387
所有的	386
是一种	386
▁b	386
先后	386
▁阿	385
很大	385
導演	385
丰富	385
媒體	385
中华民国	385
改变	384
故事	384
克林	384
當中	383
殖民	383
細胞	383
命名	383
亦有	382
和其他	382
文化大革命	382
制的	382
體的	381
過程	381
解放	381
hant	381
并在	380
製造	380
演出	380
十六	380
它們	379
ava	379
統計	378
那些	378
這一	378
分裂	378
创作	378
民間	378
企業	378
電視	378
中有	377
相互	377
现象	377
本土	377
原始	377
工人	377
之下	377
軌道	377
ter	376
▁v	375
色的	375
後的	375
权力	375
操作系统	375
汉族	375
一样	374
est	374
任命	374
类似	373
东部	373
宁夏	373
醫學	372
觀點	372
也就是	372
伊斯兰	372
▁+	372
▁for	372
不断	372
國內	372
火星	372
BS	372
近年	371
曾經	371
允许	371
瑞典	371
翻譯	370
的发展	370
有效	369
是一種	369
同一	369
教堂	369
族群	368
--	368
改为	368
發動	368
領土	368
公主	368
共产党	367
ine	367
广东	367
學習	366
江南	366
的方法	365
兄弟	365
海岸	365
澳門	365
中部	365
空间	364
第七	364
司法	364
CD	364
医院	364
而不	363
實驗	363
气温	363
被稱為	362
复杂	362
状态	362
華盛頓	362
在其	361
函数	361
計畫	361
元朝	361
更多	360
一致	360
这样	360
應該	360
衝突	360
议会	360
經濟學	359
表明	359
里斯	359
几乎	359
代码	359
海外	359
常住	359
的成	358
在中国	358
經常	358
ri	358
以后	358
約翰	358
投票	358
当地	358
紀念	358
广西	358
特的	357
发行	357
市的	357
民眾	357
網路	356
於是	356
依然	355
风格	355
og	355
以上的	355
海南	355
地區的	354
ell	354
結合	354
達到	354
批评	354
基于	354
源自	353
解決	353
还是	353
▁In	353
oc	353
年間	353
型的	353
嚴重	353
年被	353
希特勒	353
实验	352
四大	352
访问	352
高等	352
單位	352
一切	351
起来	351
调查	351
内的	351
▁f	350
過去	350
▁“	349
小的	349
政治家	349
="	348
特殊	348
道路	348
专业	348
長期	348
起源	347
一樣	347
的地方	347
||	347
▁University	347
▁。	347
选择	347
道教	347
目标	347
长期	347
健康	347
推行	347
云南	347
洛阳	347
错误	346
的小	346
撤销	346
总书记	346
的城市	346
▁西	345
好的	345
例子	345
尤其是	345
選擇	345
ity	345
▁X	345
▁李	345
武帝	345
下令	345
莫斯科	345
从而	344
的意	344
持续	344
胜利	344
一带	344
夏季	344
逻辑	343
分支	343
少數	343
人和	343
常委	343
运营	343
涉及	342
▁:	342
穆斯林	342
前的	342
恐怖	342
維持	342
勢力	342
資訊	340
多种	340
表现	340
幾乎	340
民国	340
多數	340
的中	339
推出	339
需求	337
族的	337
法案	337
足球運動員	337
建立了	336
处于	336
由此	336
移动	336
冬季	336
线路	336
發明	335
內的	335
德的	335
逐步	335
史上	335
研究所	335
分配	335
管辖	335
佔領	335
容易	334
解决	334
利亚	334
產業	334
孩子	334
朝廷	334
觀測	334
投降	334
不斷	333
互相	333
首先	333
东西	333
知名	333
机关	333
授權	333
含有	332
理想	332
广场	332
阶段	331
融合	331
星期	331
夫人	331
了解	330
证明	330
的前	330
多年	330
实施	330
合法	330
进一步	329
数字	329
以後	329
提升	329
十五	329
华盛顿	329
空間	328
權利	328
人員	328
核酸	328
將軍	328
實際	327
▁to	327
共產黨	327
正常	327
金屬	327
符合	326
平台	326
觀察	325
生成	325
ies	325
原住民	325
直至	325
倫敦	325
歷史上	324
斯基	324
▁n	324
的国家	324
機械	324
Y	324
序列	324
首相	324
藝人	324
的一些	322
視為	322
引发	322
實行	322
中学	321
期的	321
’	321
討論	321
公開	321
广播	320
回到	320
群島	320
第一個	319
截至	319
風格	318
表現	318
使用者	318
取消	318
紐約	318
即使	317
粒子	317
性质	317
é	317
外的	317
大规模	317
以外	317
的同	317
简单	316
斯的	316
以前	316
漢語	316
宣言	316
人数	316
多数	316
人口普查	316
擊敗	316
源于	315
同样	315
並在	315
原本	315
措施	315
最低	315
)(	315
士兵	315
▁{	314
矛盾	314
ree	314
ard	314
▁新	314
不足	314
秘密	314
江西	314
国防	314
學術	313
大致	313
合并	313
来说	313
阿根廷	313
雙方	313
報告	313
讨论	312
另一方面	312
减少	312
尽管	311
注意	311
▁Ch	311
身份	311
的外	311
流域	311
的概念	310
爭議	310
▁自	310
失去	310
降低	310
小时	310
破坏	310
即位	310
▁w	309
而不是	309
參加	309
太平洋	309
协议	309
GP	309
..	309
依據	308
強調	308
人民币	308
在北京	308
密西	308
反映	307
學的	307
波蘭	307
的國家	307
一詞	306
▁on	306
‘	306
民间	306
同樣	306
狀態	306
距離	306
宣佈	306
日至	306
港口	306
ical	305
代的	305
名字	305
都會	305
的支持	305
華人	305
年末	305
日在	305
一位	304
三大	304
-{}-	304
馬來西亞	304
rosoft	304
日的	303
會在	303
两种	303
提到	303
制作	303
它是	302
洛克	302
未能	302
認同	302
演化	302
Z	302
展開	302
进攻	302
▁An	301
不得	301
建议	301
突破	301
国家的	301
势力	301
山脉	301
▁北	301
会上	301
东南	301
被迫	301
主张	300
▁中	300
ud	300
其後	300
保障	300
主任	300
年以	300
書記	300
雍正	300
联系	299
的作品	299
用来	299
天的	299
曾经	299
智能	299
最多的	299
各國	299
的人口	299
菲律賓	299
构成	298
平等	298
情况	298
中华	298
▁根据	298
指揮	298
貨幣	298
电视台	298
进行了	297
家的	297
国会	297
如下	297
起义	297
差異	296
ics	296
階段	296
新聞	296
國旗	296
利亞	296
根本	295
針對	295
国家级	295
保守	295
标志	294
尤其	294
第八	294
在大	294
的海	294
聲優	294
提出了	293
而被	293
吸收	293
農業	293
▁中华人民共和国	293
公布	293
▁南	293
的發展	292
度的	292
實施	292
隨後	292
司令	292
議員	292
數量	291
每个	291
内部	291
九年	291
傾向	291
舉辦	291
定律	290
巨大	290
保存	290
的地位	290
月的	289
小说	289
質量	289
任期	289
作業	289
宋朝	289
文献	288
再度	288
的历史	288
整個	288
冲突	288
++	288
推翻	287
较为	287
引發	287
出任	287
戰役	287
弗里	286
看到	286
名稱	286
形成了	286
生的	286
经常	286
外国	286
继承	286
分之一	286
屠杀	286
進一步	285
伯特	285
▁Press	285
明显	285
民國	285
匈奴	285
掌握	284
派的	284
完整	284
In	284
背景	284
简称	284
乔治	284
协会	284
的一個	284
規模	284
繼承	284
于是	284
建設	284
然后	283
混合	283
的首	283
公开	283
戏剧	283
交易	283
事務	283
稳定	283
地下	283
官員	283
妻子	283
亨利	282
创造	282
ow	282
機關	282
武装	282
领土	282
之子	282
<0x84>	282
六年	282
科學家	281
编程	281
众多	281
南宋	281
性別	281
穩定	281
博士	281
战略	281
北京市	281
各自	280
條件	280
乌鲁木齐	280
出席	280
NBA	280
▁前	280
而非	279
上升	279
亿美元	279
本地	279
特別行政區	279
投资	279
召開	279
中學	279
記錄	278
提供了	278
扮演	278
大小	278
卡尔	278
發行	278
北京大学	278
微软	278
廣州	278
MA	278
司馬	278
已有	277
传播	277
ass	277
一名	277
对外	277
职务	277
遗产	277
今天	276
性質	276
价值	276
很快	276
将其	276
新闻	276
百分	276
指示	276
並沒有	276
污染	276
翻译	276
恢復	276
大量的	275
引入	275
物的	275
斯卡	275
知道	275
彼得	275
质量	275
首位	275
就有	274
數據	274
十九	274
上帝	274
规则	274
紀錄	274
ate	274
商品	274
能源	274
密度	274
輸入	274
平民	274
攻擊	274
女歌手	274
格拉	273
石器	273
三個	273
十八	273
的水	273
太平	273
阿富汗	273
人大常委会	273
拒绝	272
作出	272
父亲	272
争议	272
▁王	272
通信	272
政黨	272
湖南省	272
扩大	271
ure	271
一系列	271
找到	271
ill	271
式的	271
重建	271
建議	270
▁的	270
劳动	270
名称	270
职业	270
签署	270
議會	270
辖区	270
又称	269
几个	269
北美	269
內部	269
人大	269
下游	269
设置	269
大连	269
距离	269
德意志	269
视为	268
。“	268
定居	268
省份	268
東北	268
盆地	268
GN	268
五代	268
日报	268
清华	268
而成	267
有时	267
基督	267
改造	267
建造	267
破壞	267
签订	267
枢纽	267
目標	266
▁de	266
连续	266
四个	266
城镇	266
征服	266
帮助	265
意义	265
最高的	265
改善	265
特征	265
簽署	265
建立的	264
用來	264
證明	264
複雜	264
ant	264
氣候	264
说法	264
》《	264
满洲	264
四人	263
來說	263
提出的	263
学术	263
应该	263
(,	263
演员	263
大幅	263
部门	263
人口的	263
遗传	263
大桥	263
常常	262
的名	262
並非	262
基於	262
三角	261
感到	261
ual	261
的不	261
相当	261
则是	261
的时候	261
文物	261
修建	261
信徒	261
區的	261
离开	261
創造	260
台北	260
勞動	260
拒絕	260
攻击	260
突厥	260
失敗	260
客运	260
ik	259
ition	259
机械	259
任务	259
图书馆	259
衛星	259
昆明	259
曾任	259
的有	258
列入	258
西安	258
科学家	258
届全国	258
芬兰	258
教育部	258
兩種	257
贡献	257
自我	257
中国的	257
集團	257
爆炸	257
空气	257
RNA	257
海軍	257
年度	257
丘陵	257
授予	257
冠軍	257
鈹	257
學科	256
▁U	256
观察	256
发明	256
上有	256
又稱	256
Un	256
警察	256
悉尼	256
採取	256
元音	256
时期的	255
布拉	255
留下	255
援助	255
路易	255
棒球	255
協會	255
位居	255
美军	255
太祖	255
形成的	254
ern	254
手段	254
市民	254
最为	254
自行	254
溫度	254
了一个	254
失败	254
▁有	253
的最	253
還是	253
分类	253
▁美国	253
天體	253
協助	252
oph	252
意識	252
已知	252
算法	252
圖書館	252
詹姆斯	252
海军	252
王国	252
山东省	252
他們的	251
成就	251
▁re	251
必要	251
ect	251
的形式	250
可以在	250
平衡	250
▁由於	250
权利	250
軟件	250
设施	250
调整	250
尔德	250
ry	249
在中	249
努力	249
減少	249
形象	249
》、	249
稱呼	249
原則	249
墨西哥	249
运输	249
詩人	249
條款	249
市政府	249
形容	248
方面的	248
周年	248
▁h	248
、、	248
的工作	248
针对	248
语的	248
货币	248
犹太	247
投入	247
先後	247
击败	247
大氣	247
卫生	247
年后	247
當選	247
强调	246
ology	246
百姓	246
,(	246
有時	245
▁Pro	245
叫做	245
加以	245
編輯	245
清廷	245
院校	245
大批	245
戰後	245
山西	245
有着	244
上述	244
中最	244
包括了	244
展示	244
體系	244
教科	244
法官	244
ISBN	244
簡稱	244
父親	244
河流域	244
体制	244
▁年	244
意義	243
江苏	243
届全国政协	243
清代	242
的事	242
▁by	242
英雄	242
以南	242
设备	242
生理	242
私人	242
文化的	242
实验室	242
总面积	242
提名	242
曾在	242
來源	241
ial	241
的基本	241
舞蹈	241
德语	241
國家的	241
双方	241
并入	241
北宋	241
商人	241
國民黨	241
七年	241
進步	240
后期	240
波斯	240
表達	240
安排	240
采取	240
中国人民	240
之地	240
符號	239
密切	239
什么	239
情況	239
喬治	239
發起	239
阿拉	239
湖泊	239
官员	239
中国人民解放军	239
匈牙利	239
创立	238
的原因	238
年後	238
推動	238
相同的	238
固定	238
▁k	238
國立	238
十七	238
杂志	238
恆星	238
派遣	238
ish	237
性和	237
他们的	237
的天	237
演奏	237
▁–	237
銀行	237
食物	237
斗争	237
印尼	237
街道	237
的多	236
不到	236
歌曲	236
其中包括	236
时的	236
臨時	236
全世界	236
明顯	236
人數	236
吉林	236
电话	236
通车	236
的問題	235
经验	235
試圖	235
居住在	235
开通	235
法庭	235
語的	234
相反	234
试图	234
主流	234
ack	234
成果	234
IS	234
食品	234
农民	234
岁的	234
高宗	234
早在	233
集合	233
確定	233
晚期	233
一段	233
使其	233
生态	233
路線	233
▁清	233
科研	233
宣告	233
有著	232
專業	232
錯誤	232
存在的	232
名为	232
里程	232
教徒	232
個月	232
字符	232
今日	231
允許	231
一词	231
分類	231
防止	231
决议	231
》(),	231
書籍	230
ary	230
傳播	230
神经	230
這樣	230
称作	230
北洋	230
中央委员会	230
自治区	230
機場	230
崇拜	230
冠军	230
的反	229
所謂	229
在這	229
聚集	229
ild	229
另有	229
群岛	229
合肥	229
起來	228
出现了	228
格尔	228
時的	228
也會	228
诗人	228
过去	228
专门	228
只要	228
有限公司	228
週期	228
多個	228
安徽	228
退出	228
Mic	228
歐盟	228
現今	227
贝尔	227
▁此外	227
最重要的	227
系统的	227
離開	227
覆盖	227
陸軍	227
公園	227
先生	227
面向	226
评价	226
角度	226
自动	226
的代表	226
大規模	226
火山	226
部長	226
财政	226
共產	226
領導人	226
<0xA6>	226
地铁	226
猶太	226
完善	225
智慧	225
▁中國	225
戲劇	225
時任	225
實現	225
百年	225
逮捕	225
高校	225
用戶	225
定理	224
诺贝尔	224
的一种	224
特别是	224
中國的	224
飞机	224
▁由于	224
仍有	224
都会	224
進攻	224
袁世	224
十字	224
日常	223
被視為	223
ory	223
是最	223
德拉	223
积极	223
iz	223
局面	223
長的	223
然後	223
積極	223
作战	223
年初	223
各省	223
曼谷	223
袭击	223
族自治	223
年开始	222
普及	222
达尔	222
推动	222
犯罪	222
如今	222
一帶	222
改為	222
开展	222
轨道	222
次年	222
美軍	222
量子	221
ub	221
社群	221
▁「	221
從事	221
卫星	221
分布在	221
率为	221
▁Ed	220
陷入	220
提倡	220
格的	220
斯塔	220
每個	220
深入	220
▁st	220
总人口	220
浙江省	220
号线	220
科的	219
▁g	219
时候	219
世界的	219
▁一	219
ess	219
擴大	219
象徵	219
BM	219
▁美國	219
离子	219
水利	219
南海	219
簽訂	219
主權	219
阳市	219
中期	218
资料	218
事务	218
較為	218
名為	218
遭受	218
十大	218
湖北	218
边境	218
拿破	218
評論	217
认识	217
拉克	217
维护	217
克的	217
做出	217
试验	217
競爭	217
这里	217
水量	217
山地	217
多人	217
桂林	217
領袖	217
时任	217
军委	217
亦是	216
什麼	216
具体	216
染色	216
我的	216
原理	215
中被	215
一百	215
人才	215
任務	215
民众	215
後期	215
估計	215
準備	215
当时的	215
協議	215
元首	215
友好	215
變成	214
的部分	214
洛伊	214
创建	214
成分	214
上下	214
比賽	214
第一位	214
作物	214
用作	214
克里	214
热带	214
细菌	214
喇嘛	214
特区	214
剧院	214
明的	213
在一	213
真正	213
司马	213
临时	213
她的	213
GB	213
年和	213
實際上	212
per	212
重視	212
秩序	212
Ch	212
唐代	212
BC	212
日益	212
ain	212
檔案	212
引力	212
万吨	212
欧盟	212
外國	212
余人	212
过程中	211
▁&	211
貢獻	211
医生	211
全年	211
国际机场	211
所在地	211
周边	211
廣東	211
十月	211
斯克	211
公交	211
塔利	211
ment	210
唯一的	210
俄国	210
考虑	210
達成	210
加强	210
接收	210
长的	210
医疗	210
委員	210
日军	210
山区	210
比赛	210
三世	210
夫斯基	210
英格蘭	210
ence	209
延伸	209
在美国	209
并于	209
高等教育	209
他是	209
威脅	209
院士	209
沈阳	209
<0xAB>	209
省级	209
簡單	208
▁ed	208
ile	208
关键	208
不会	208
尚未	208
差异	208
同治	208
部长	208
的最高	207
若干	207
区别	207
qu	207
很少	207
的手	207
在美國	207
经历	207
粮食	207
志愿	207
總部	207
iki	207
将军	207
▁En	206
诗歌	206
ang	206
来源	206
排列	206
澳大利亚	206
并没有	206
輻射	206
▁-{	206
「」	206
地形	206
那么	206
NT	206
摩托	206
准备	206
不仅	205
印刷	205
指定	205
内战	205
率领	205
小学	205
立即	205
引用	204
人文	204
原则	204
事物	204
經典	204
學會	204
尼克	204
特定的	203
▁Th	203
东方	203
至此	203
教会	203
扩展	203
本人	203
群众	203
走向	203
▁和	203
的中心	203
項目	203
四川省	203
idae	203
是不	202
的世界	202
edia	202
教学	202
宣传	202
衍生	202
主義的	202
三國	202
实际上	202
少数	202
奧地利	202
的日	202
特區	202
消息	202
ype	202
景区	202
到的	201
ens	201
团体	201
享有	201
一方面	201
光緒	201
竞争	201
各国	201
祖先	201
」;	201
說法	201
醫療	201
主義者	201
此時	201
私立	201
国民政府	201
海上	201
東南亞	201
主持人	201
作戰	201
校长	201
理性	200
藉由	200
以此	200
分之	200
處於	200
年美國	200
解放军	200
朋友	200
象征	200
加速	199
尼斯	199
兩者	199
挪威	199
▁New	199
▁Sp	199
eg	199
對象	199
在中國	199
AT	199
更是	199
東西	199
分佈	199
色彩	199
大西洋	199
损失	199
上海市	199
月至	199
早期的	198
的關係	198
哈伊	198
ont	198
这样的	198
西斯	198
貴族	198
舞台	198
效果	198
都在	198
战斗	198
多元	198
第九	198
增長	198
《》	198
日起	198
勝利	198
农村	198
会议上	198
東京	198
球隊	198
圖曼	198
將其	197
位的	197
特性	197
此时	197
設置	197
广东省	197
群眾	197
以北	197
青海	197
子女	197
奥斯曼	197
物理学	196
用途	196
界的	196
得到了	196
年出版	196
兼任	196
依照	196
贵州	196
籃球	196
天皇	196
被认为是	195
器的	195
颁布	195
執政	195
%)	195
比利時	195
频道	195
豐富	194
分成	194
放在	194
議題	194
成为了	194
pl	194
▁目前	194
製作	194
五十	194
坚持	194
维持	194
旅遊	194
三国	194
攻占	194
如同	193
包含了	193
在於	193
特徵	193
是中國	193
”,“	193
體制	193
展开	193
毫米	193
山脈	193
公尺	193
当选	193
口岸	193
产生的	192
時期的	192
证据	192
▁世界	192
投資	192
擴張	192
設有	192
对应	192
建国	192
ast	192
版本的	192
Th	192
七月	192
领袖	192
ort	191
在一起	191
考察	191
也因此	191
沿岸	191
ode	191
创办	191
方便	191
温度	191
地质	191
国军	191
八年	191
便是	190
专家	190
的名字	190
播放	190
基金	190
代替	190
放射	190
加工	190
通道	190
长度	190
格式	190
级行政	190
红军	190
王子	190
裔美國	190
印度尼	190
是有	189
四十	189
不要	189
里的	189
修正	189
教宗	189
的所有	189
當時的	189
收集	189
學系	189
境內	189
陸續	189
訪問	189
出來	188
對此	188
成熟	188
的功能	188
證據	188
弗雷	188
文艺	188
促进	188
出土	188
最近	188
信号	188
编码	188
奥地利	188
崛起	188
發射	188
連接	188
AR	188
优势	188
中國國民黨	188
選手	188
兩國	188
▁//	188
文本	187
眾多	187
特点	187
一同	187
定了	187
理念	187
意识	187
编辑	187
成本	187
撰寫	187
主導	187
小组	187
特別是	187
报道	187
阻止	187
发起	187
年到	187
主教	187
"|	187
在位	187
任天堂	187
架構	186
▁三	186
在西	186
之父	186
的神	186
超越	186
強烈	186
<0xB5>	186
伯格	186
ong	186
中華民國政府	186
巴士	186
两国	186
新区	186
开发区	186
的重	185
ord	185
機會	185
創立	185
划归	185
ript	185
巨大的	185
過程中	185
利的	185
用以	185
促使	185
机制	185
放棄	185
大力	185
危机	185
加強	185
<0x9C>	185
估计	185
气体	185
北平	185
球队	185
平定	185
通行	185
經驗	184
所谓	184
在他	184
ix	184
ey	184
配合	184
戰國	184
策略	184
與其他	184
規則	184
理事	184
相继	184
壓力	184
土壤	184
示威	184
阿里	184
国立	184
SM	184
球员	184
校区	184
理由	183
ive	183
的存在	183
自主	183
》)	183
激烈	183
構成	183
條目	183
法蘭克	183
治疗	183
废除	183
行政区	183
攻打	183
公爵	183
彼此	182
對應	182
卡爾	182
很大的	182
各类	182
更新	182
有可能	182
優勢	182
首的	182
空氣	182
航天	182
▁第一	182
廢除	182
上游	182
立方米	182
東部	182
周恩	182
世代	182
省的	182
演唱	182
明代	181
说明	181
汽車	181
法語	181
高級	181
行使	181
▁从	180
出来	180
世纪初	180
致力	180
清末	180
观测	180
此後	180
数的	180
利斯	180
▁根據	180
道光	180
威胁	180
Sc	180
母亲	180
解散	180
书院	180
原住	180
》:	180
可見	179
▁Phil	179
▁)	179
复兴	179
明确	179
集中在	179
机器	179
整理	179
造成的	179
運作	179
英格兰	179
整合	179
在日本	179
发电	179
漫畫	179
體育	179
國民小學	179
军区	179
的意思	178
態度	178
看法	178
产生了	178
放弃	178
網絡	178
尚書	178
紐西蘭	178
引擎	178
專門	178
成長	178
消失	178
资本	178
生育	178
常用	178
水扁	178
內閣	178
陕西	178
文帝	178
县级	178
省会	178
末期	177
实践	177
形态	177
ons	177
评论	177
Al	177
種族	177
erson	177
设有	177
兩人	177
抗日	177
▁金	177
华北	177
抽象	176
的歷史	176
測量	176
明確	176
▁Z	176
关注	176
”;	176
克里斯	176
接觸	176
周期	176
道夫	176
之上	176
最高法院	176
学会	176
巴基斯坦	176
游行	176
海峽	176
首任	176
起義	176
辽宁	176
滿洲	176
書寫	175
的生活	175
和大	175
强烈	175
”)	175
為一	175
▁臺灣	175
了一些	175
效率	175
台北市	175
無論	175
財政	175
離子	175
五大	175
小時	175
其余	175
對外	175
五月	175
南下	175
St	175
氨基	175
正月	175
资产	175
他也	174
识别	174
姓氏	174
國語	174
导演	174
查理	174
▁天	174
一部分	174
洪水	174
奥运会	174
发现了	174
政党	174
安德	174
干部	174
進而	173
年輕	173
弗朗	173
幫助	173
有了	173
似乎	173
节目	173
教的	173
威尔	173
情况下	173
醫院	173
MS	173
決議	173
管轄	173
大道	173
納粹	173
<0xE0>	173
促進	172
可以被	172
埃尔	172
▁Pr	172
是为	172
談判	172
政府在	172
淡水	172
<0xBD>	172
遺傳	172
尊重	172
申請	172
到达	172
释放	172
陆续	172
泰國	172
球員	172
電話	172
萨克森	172
越來越	171
有三	171
.,	171
都不	171
死后	171
指导	171
变成	171
提及	171
ert	171
成立的	171
未來	171
▁与	171
第三次	171
高中	171
廣播	171
網站	171
培养	171
最為	171
考慮	171
記者	171
經歷	171
探測	171
日期	171
发射	171
会在	171
第二次世界大戰	171
出兵	171
旅客	171
不滿	171
聲明	171
在上海	171
二月	171
联军	171
从事	170
ach	170
回答	170
永久	170
经典	170
代理	170
马克思	170
检查	170
間的	170
大夫	170
是為	170
状况	170
抵抗	170
二人	170
河北省	170
里亚	170
▁安	170
▁明	170
動力	169
但他	169
从此	169
之意	169
高级	169
附属	169
反而	169
罗斯	169
現任	169
兩岸	169
请求	169
党的	169
光绪	169
ost	168
▁香港	168
旅行	168
生存	168
ore	168
清楚	168
沿用	168
电脑	168
呈現	168
至於	168
部門	168
研究院	168
地面	168
斯托	168
地带	168
并未	168
较大	168
迫害	168
组建	168
八月	168
十一年	168
意为	168
拿破仑	168
更多的	167
程度上	167
出现在	167
文獻	167
整體	167
奴隶	167
传说	167
祭祀	167
存储	167
成立了	167
应当	167
许可	167
國民政府	167
为中国	167
支流	167
运动会	167
白色	167
都可以	166
其他的	166
推廣	166
另一個	166
组合	166
的问题	166
▁是	166
日語	166
設備	166
價格	166
興建	166
以外的	166
研究中心	166
並於	166
西亚	166
扩张	166
發布	166
参数	166
总部	166
俄國	166
北海	166
馬來	166
基本上	165
在内的	165
战后	165
〉。	165
中立	165
越来越	165
种类	165
常見	165
意見	165
令人	165
流量	165
<0x95>	165
所在	165
末年	165
信奉	165
}-,	165
国民党	165
谈判	165
CO	165
之女	165
率領	165
伯爵	165
連續	164
研究的	164
東亞	164
又有	164
完整的	164
ou	164
介绍	164
已被	164
唱片	164
治理	164
ica	164
滅亡	164
PS	164
。。	164
二氧化	164
三次	164
武裝	164
中央政府	164
天津市	164
模特兒	164
的一種	163
最有	163
▁古	163
整体	163
之为	163
父母	163
反抗	163
贵族	163
追求	163
公司的	163
增加了	163
AS	163
事故	163
委书记	163
巴勒斯坦	163
黑龙江	163
首府	163
思考	162
著的	162
▁宋	162
组成的	162
年時	162
重的	162
列为	162
組成的	162
訓練	162
通訊	162
的情況	162
的政策	162
伊斯蘭	162
现有	162
<0xA0>	162
▁元	162
行政院	162
申请	162
这次	162
之战	162
數字	161
另一个	161
▁Un	161
古老的	161
规范	161
毕业	161
運行	161
打击	161
就可以	161
面對	161
得知	161
报纸	161
下了	161
空軍	161
总督	161
運用	160
復興	160
的美	160
▁Con	160
网站	160
地域	160
AC	160
通讯	160
堅持	160
並未	160
不得不	160
運輸	160
衛生	160
案件	160
河的	160
州府	160
中央军委	160
代表大会	160
法语	159
各个	159
组织的	159
合理	159
格斯	159
ame	159
散文	159
移動	159
大眾	159
ult	159
暴力	159
系的	159
合物	159
平方	159
清华大学	159
會員	159
美术	159
千米	159
專輯	159
專家	158
現實	158
主义的	158
打破	158
带来	158
的各	158
后者	158
在他的	158
纳粹	158
个月	158
交换	158
生物学	158
呼吸	158
在北	158
遭遇	158
执政	158
会员	158
之戰	158
澳大利亞	158
民進黨	158
几何	157
及其他	157
基金会	157
課程	157
并非	157
觀念	157
武汉	157
西洋	157
一家	157
家人	157
危機	157
第二次世界大战	157
力学	157
氣體	157
工艺	157
在香港	157
該國	157
抵達	157
國務院	157
母親	157
都督	157
-)	157
的正	156
年由	156
千年	156
不受	156
依靠	156
ind	156
的第二	156
地中海	156
作曲	156
國防	156
真正的	156
基础上	156
突然	156
克拉	156
迫使	156
儿子	156
元帅	156
TS	156
<0x8E>	156
自此	156
成立后	156
被認為是	155
和中	155
<0xA9>	155
▁De	155
可能會	155
流通	155
公社	155
大大	155
的情况下	155
物种	155
oid	155
十二月	155
)、《	154
探索	154
組合	154
黄金	154
变得	154
▁以	154
更为	154
影片	154
使用了	154
尔特	154
工程師	154
一级	154
將會	154
四個	154
son	154
ust	154
產生的	154
脫離	154
鼓勵	154
為止	154
東南	154
免费	154
收藏	154
高于	154
聚居	154
<0xA5>	154
<0x8A>	154
隧道	154
<0xE3>	154
聯繫	153
年轻	153
說明	153
年中	153
彻底	153
▁[	153
输入	153
標誌	153
財產	153
天体	153
差距	153
水的	153
事业	153
合併	153
空军	153
北伐	153
基金會	153
IT	153
身亡	153
在今	153
大理	153
中所	152
當代	152
等的	152
▁上	152
tern	152
形態	152
帶來	152
的作用	152
创新	152
記憶	152
华人	152
东南亚	152
協定	152
镇压	152
列為	152
客家	152
品牌	152
祖父	152
边界	152
值得	151
able	151
路线	151
列宁	151
▁而	151
類型	151
文的	151
对此	151
周围	151
他人	151
人權	151
宣稱	151
正确	151
地名	151
其餘	151
行业	151
法令	151
约为	151
岛屿	151
论文	151
總督	151
弟子	151
宰相	151
聯軍	151
水库	151
酒店	151
的使用	150
的情	150
肯定	150
不明	150
大家	150
建國	150
庆祝	150
綜合	150
各地的	150
充分	150
後者	150
到達	150
生效	150
宣傳	150
<0x90>	150
畫家	150
想法	149
前身	149
eng	149
教士	149
yn	149
定为	149
动力	149
路易斯	149
<0xE1>	149
福利	149
從而	149
支持者	149
羅馬帝國	149
紛紛	149
性别	149
事業	149
都被	149
种植	149
ET	149
月底	149
写的	149
军的	149
就任	149
经营	149
的不同	148
间的	148
格里	148
意见	148
在于	148
可以用	148
除此之外	148
仪式	148
深刻	148
雜誌	148
規劃	148
多種	148
給予	148
两次	148
幾個	148
百萬	148
威爾	148
区和	148
島嶼	148
甘肃	148
城市的	148
通知	148
死于	148
战争中	148
直隶	148
陆军	148
族人	148
難以	147
即是	147
公眾	147
生於	147
王室	147
替代	147
相应	147
脱离	147
基督徒	147
ond	147
粵語	147
典型	147
一部	147
体现	147
循环	147
<0xAA>	147
对抗	147
重庆市	147
▁周	147
不满	147
当年	147
河南省	147
主力	147
琉球	147
。「	146
常见	146
▁History	146
态度	146
推广	146
追溯到	146
▁马	146
對話	146
其實	146
满足	146
进程	146
羅斯	146
分离	146
原先	146
治療	146
草原	146
芬蘭	146
优秀	146
亲自	146
延安	146
市长	146
奧運	146
更為	145
狀況	145
論文	145
關注	145
▁style	145
▁from	145
▁World	145
▁at	145
通常是	145
▁另外	145
規範	145
像是	145
占据	145
大学的	145
依据	145
身体	145
卡斯	145
教會	145
依赖	145
醫生	145
小型	145
变为	145
男女	145
年開始	145
责任	145
親王	145
其子	145
长安	145
拉萨	145
业务	145
布爾	145
嘗試	144
相近	144
參考	144
ys	144
認識	144
斯科	144
olog	144
則有	144
集体	144
理工	144
維護	144
邊界	144
約有	144
派出	144
智利	144
低于	144
邀请	144
指控	144
<0x9E>	144
国务	144
變得	143
世纪的	143
教师	143
框架	143
有一些	143
顺序	143
公众	143
IC	143
压缩	143
的能力	143
現時	143
武力	143
天文學家	143
IV	143
約為	143
<0x80>	143
每天	143
江苏省	143
一人	143
抗议	143
专区	143
前任	143
分解	142
显著	142
有机	142
的先	142
就像	142
有很多	142
車站	142
的女	142
有多	142
立場	142
侵犯	142
社区	142
超級	142
中心的	142
▁五	142
農曆	142
记者	142
▁巴	142
海峡	142
三月	142
运河	142
將領	142
下辖	142
地处	142
的法	141
变量	141
主題	141
ink	141
带有	141
罗马帝国	141
也可	141
儿童	141
有一定	141
出自	141
ire	141
授权	141
歌唱	141
不但	141
教學	141
的法律	141
初年	141
玻璃	141
行政区划	141
校友	141
<0xAF>	141
少年	141
▁唐	141
疫苗	141
空中	141
飾演	141
▁Comp	140
▁Al	140
泰勒	140
▁x	140
▁Y	140
▁高	140
文中	140
哈尔	140
消耗	140
价格	140
ata	140
ivers	140
賽車	140
共享	140
ron	140
<0xB6>	140
起了	140
瓦尔	140
拉德	140
鬥爭	140
测量	140
撞擊	140
▁Pl	140
野生	140
始于	140
全境	140
菲律宾	140
称呼	140
草案	140
山東	140
画家	140
常务	140
愛爾蘭	140
寫作	139
假設	139
方程	139
久的	139
有許多	139
以西	139
无论	139
▁York	139
ism	139
意味	139
但是在	139
特里	139
的情况	139
兒童	139
▁日本	139
受伤	139
内地	139
游客	139
病逝	139
這次	139
学堂	139
马来	139
真理	138
相关的	138
科学技术	138
ug	138
高峰	138
▁此	138
性能	138
定期	138
疫情	138
無線	138
形的	138
困难	138
AP	138
血液	138
场所	138
▁截至	138
人民代表大会	138
理查德	138
比亚	138
▁奥	138
<0xA1>	138
政变	138
附近的	138
捷運	138
男歌手	138
的時候	137
启动	137
ple	137
一千	137
塞尔	137
主题	137
ite	137
但不	137
就在	137
分離	137
做法	137
從此	137
密的	137
<0x88>	137
的西	137
相当于	137
警方	137
發佈	137
大帝	137
浪漫	136
▁Ar	136
興趣	136
以其	136
日本的	136
轉換	136
會的	136
生態	136
之名	136
协调	136
的位置	136
自杀	136
ash	136
山區	136
雲南	136
太原	136
TV	136
结婚	136
工程师	136
九月	136
港澳	136
出身	136
蘇丹	136
PlayStation	136
其在	135
期刊	135
分的	135
现实	135
ich	135
為基礎	135
▁雖然	135
技巧	135
仍在	135
ley	135
发挥	135
影像	135
未来	135
转换	135
它在	135
刺激	135
II	135
因子	135
機制	135
完美	135
了他	135
的土地	135
正是	135
機器	135
蒙特	135
<0xA7>	135
获得了	135
声明	135
公立	135
緬甸	135
黨的	135
死刑	135
流亡	135
大楼	135
钢琴	135
机会	135
▁张	135
”“	135
日耳曼	135
貝爾	134
▁Mar	134
塞爾	134
各個	134
尝试	134
它们的	134
为一	134
娱乐	134
目的是	134
購買	134
作的	134
乃至	134
星系	134
<0xB0>	134
穆罕默德	134
人民共和国	134
中等	134
農民	134
日軍	134
的中国	134
接壤	134
监督	134
东京	134
登陸	134
AN	134
四月	134
預測	133
的情況下	133
的四	133
▁'	133
報導	133
前者	133
第一部	133
进步	133
也会	133
isc	133
容量	133
ase	133
美国的	133
不僅	133
途中	133
NA	133
提交	133
游泳	133
服务器	133
非法	133
支付	133
公投	133
起兵	133
红色	133
将领	133
广播电台	133
全长	133
玩家	133
ES	133
▁Ex	132
本科	132
互動	132
區分	132
的非	132
經由	132
",	132
因其	132
Com	132
其中的	132
天地	132
知名的	132
職務	132
化石	132
澳门	132
法定	132
南非	132
伊斯蘭教	132
節目	132
留在	132
編劇	132
大樓	132
车队	132
xt	132
德語	131
指的是	131
过渡	131
ran	131
以便	131
但也	131
的核心	131
工作的	131
▁e	131
▁馬	131
分别为	131
工厂	131
發出	131
習慣	131
▁北京	131
道的	131
亞歷山大	131
保证	131
车辆	131
新建	131
城的	131
改名	131
死後	131
<0xBA>	131
靠近	131
活性	131
拜占庭	131
车站	131
正確	130
科夫	130
共产主义	130
其中有	130
▁中華民國	130
区分	130
长达	130
區別	130
的字	130
帶有	130
接触	130
裡的	130
稱作	130
同時也	130
爾德	130
有一个	130
在校	130
解放軍	130
达成	130
襲擊	130
是中华人民共和国	130
裝置	130
ML	130
解除	130
<0xAE>	130
西北部	130
侵略	130
▁基	129
連結	129
互联网	129
来源于	129
尼古拉	129
部署	129
受歡迎	129
当代	129
桥梁	129
范围内	129
可以通过	129
ium	129
就會	129
常见的	129
ER	129
年齡	129
終於	129
螺旋	129
每日	129
尔顿	129
釋放	129
▁林	129
添加	129
先进	129
协商	129
中正	129
上市	129
贏得	129
并将	129
傳說	129
兵力	129
萨尔	129
市中心	129
大橋	129
院长	129
▁!	129
但其	128
米尔	128
主要由	128
irect	128
ations	128
定位	128
考試	128
會有	128
中也	128
频率	128
正面	128
家中	128
特拉	128
接著	128
美國的	128
地鐵	128
▁全	128
六月	128
租界	128
長達	128
不列	128
日正式	128
<0x92>	128
系統的	127
认为是	127
ock	127
ames	127
ction	127
”),	127
独立的	127
並以	127
<0xB9>	127
生长	127
控制的	127
面临	127
驱动	127
千人	127
志願	127
北部的	127
大同	127
河口	127
召集	127
兒子	127
分钟	127
BA	127
不如	127
被判	127
巴塞	127
书中	126
的大部分	126
布尔	126
尔斯	126
怀疑	126
和新	126
取得了	126
ino	126
的故事	126
总体	126
指令	126
時候	126
<0xA4>	126
<0x86>	126
經營	126
▁Stud	126
IN	126
對抗	126
爾斯	126
任意	126
巴比	126
各大	126
磷酸	126
压力	126
更名为	126
全体	126
▁下	126
两人	126
十三年	126
米的	126
物理学家	126
法兰西	126
大部份	125
。)	125
▁伊	125
建制	125
形式的	125
ear	125
的信	125
尚书	125
图像	125
<0x8C>	125
燃料	125
其后	125
年代初	125
适应	125
现今	125
难以	125
社區	125
▁Mic	125
可在	125
地質	125
航海	125
化工	125
的上	125
不知	125
施行	125
习近平	125
億美元	125
提議	125
))	125
移植	125
移居	125
內戰	125
月份	125
吉林省	125
á	124
的要求	124
ew	124
ric	124
问题的	124
托马斯	124
绝对	124
▁John	124
▁Me	124
單一	124
喜劇	124
▁克	124
意味着	124
审查	124
训练	124
」)	124
出現在	124
常見的	124
最具	124
存的	124
徹底	124
名列	124
隋朝	124
主管	124
▁第二	124
參議院	124
布朗	124
改称	124
▁黄	124
最後一	124
监狱	124
米亚	123
的可	123
来到	123
身上	123
▁文	123
外部	123
声称	123
Ar	123
照片	123
路德	123
打算	123
律師	123
保罗	123
並將	123
霍夫	123
子和	123
點的	123
人口密度	123
协定	123
截止	123
抵达	123
<0xA8>	123
<0x91>	123
<0x97>	123
政變	123
王的	123
<0x9A>	123
州和	123
中书	123
賽事	123
南部的	123
和南	122
不存在	122
的本	122
雷斯	122
他被	122
▁海	122
ight	122
戰鬥	122
在新	122
五个	122
調整	122
絕對	122
管制	122
自動	122
確保	122
多樣	122
遵循	122
方程式	122
打擊	122
設施	122
歧視	122
医学院	122
<0x9B>	122
國軍	122
接替	122
公約	122
廣場	122
聯賽	122
在这	122
▁Q	122
中间	122
<0x89>	122
赛事	122
喜欢	122
尼泊尔	122
内阁	122
或其他	121
▁從	121
布魯	121
倾向	121
亚历山大	121
不可能	121
撤退	121
戰略	121
一旦	121
歷史學家	121
▁然而	121
德尔	121
应用程序	121
<0xB2>	121
鋼琴	121
消費	121
Cl	121
结束后	121
是美国	121
建于	121
保羅	121
含量	121
人之	121
就会	121
房屋	121
故居	121
不詳	121
劇院	121
▁Off	121
時代的	121
軍的	121
辽宁省	121
河谷	121
▁东	121
此一	120
傳統的	120
资金	120
稱之為	120
分别是	120
的关系	120
的時間	120
上是	120
萨克	120
德斯	120
▁他	120
法兰克	120
▁Cl	120
情感	120
单独	120
相關的	120
世界各地	120
拍摄	120
突出	120
▁Ser	120
集體	120
审判	120
的大型	120
關鍵	120
物種	120
患者	120
深圳市	120
发出	120
十一月	120
可汗	120
澎湖	120
泉州	120
黑人	120
擴展	119
想要	119
布斯	119
事情	119
传统的	119
▁Le	119
▁Ph	119
介紹	119
又名	119
▁原	119
提议	119
声音	119
生于	119
樂團	119
交換	119
分割	119
的自由	119
比利时	119
地圖	119
写道	119
多名	119
正式成立	119
排名第	119
歲的	119
维亚	119
軍官	119
發音	119
<0x9D>	119
UM	119
困難	118
流傳	118
有利	118
與其	118
人生	118
为人	118
主义者	118
干涉	118
他还	118
認為是	118
國籍	118
以為	118
人所	118
()。	118
改良	118
複製	118
個體	118
<0xBC>	118
責任	118
mer	118
起初	118
冰川	118
分鐘	118
受到了	118
颜色	118
熱帶	118
公顷	118
抗日战争	118
购买	118
完工	118
但因	118
之初	118
金牌	118
ler	118
的后	118
親自	118
長子	118
攻陷	118
柬埔寨	118
勒斯	118
猶太人	118
eth	117
▁Re	117
An	117
ath	117
<0xAC>	117
移到	117
以及其他	117
仅仅	117
▁with	117
ook	117
遵守	117
记忆	117
绘画	117
旨在	117
<0xAD>	117
資產	117
皇室	117
拍攝	117
ID	117
他認為	117
分別是	117
病人	117
<0x98>	117
命名为	117
均为	117
赤道	117
繁殖	117
西南部	117
河道	117
尼泊	117
保护区	117
五百	117
結婚	117
犹太人	117
辞职	117
校長	117
對手	117
防御	117
大公	117
人都	117
比亞	117
漫畫家	117
物體	116
審查	116
證實	116
查尔斯	116
与其他	116
中間	116
感情	116
者和	116
妇女	116
介入	116
▁On	116
严格	116
阿基	116
加州	116
马拉	116
實驗室	116
人群	116
編寫	116
武術	116
接下	116
修正案	116
在南	116
德軍	116
播出	116
第十二	116
图案	116
西德	116
嚴格	115
之處	115
東方	115
真实	115
化为	115
年以来	115
途径	115
予以	115
协助	115
课程	115
<0x99>	115
巴拉	115
獨立的	115
Te	115
書中	115
循環	115
器官	115
约瑟夫	115
大革命	115
的後	115
首批	115
抗議	115
EC	115
回忆	115
称号	115
違反	115
公式	114
意思	114
才是	114
入了	114
西元	114
尔的	114
特殊的	114
对其	114
▁Em	114
rit	114
ick	114
損失	114
古老	114
儀式	114
警告	114
源於	114
、《	114
蘇格蘭	114
更改	114
也很	114
芝加哥	114
也曾	114
均有	114
构造	114
岩石	114
人與	114
四世	114
其中一	114
注册	114
<0x93>	114
一半	114
民主党	114
第十一	114
参议院	114
明星	114
丞相	114
兴建	114
推进	114
烏克蘭	114
市長	114
云南省	114
军团	114
az	113
研究生	113
布里	113
运用	113
下一	113
年左右	113
▁一些	113
不需要	113
電視台	113
版的	113
出租	113
有效的	113
回歸	113
科学院	113
一生	113
之路	113
定為	113
極為	113
gram	113
指導	113
超级	113
當局	113
闻名	113
送到	113
未有	113
PC	113
领导的	113
多尔	113
首席	113
<0xB8>	113
一日	113
弗吉	113
的角色	112
這樣的	112
慈善	112
最著名的	112
▁多	112
的其他	112
又在	112
ith	112
ier	112
首个	112
那麼	112
勞工	112
的前身	112
刑事	112
提供的	112
给予	112
類別	112
身體	112
都要	112
晚上	112
接管	112
攻入	112
拆除	112
捷克	112
普鲁士	112
爱尔兰	112
解析	111
与其	111
的话	111
▁二	111
等人的	111
ton	111
ung	111
写作	111
成功的	111
是因為	111
的时间	111
▁斯	111
缺陷	111
下来	111
预测	111
變為	111
一天	111
印象	111
股份有限公司	111
著有	111
但由于	111
抑制	111
懷疑	111
的两	111
消费	111
接任	111
銷售	111
保险	111
典型的	111
索尼	111
安装	111
此事	111
並無	111
<0xB7>	111
屠殺	111
嘉慶	111
洛杉矶	111
度假	111
联赛	111
公约	111
城际	111
▁--	110
深受	110
了他的	110
▁is	110
長度	110
支配	110
罗伯特	110
种族	110
现存	110
效應	110
观众	110
米爾	110
成為了	110
人被	110
情报	110
的光	110
火箭	110
天气	110
三人	110
鼓励	110
但由於	110
自称	110
国有	110
位列	110
苏维埃	110
南京市	110
入境	110
國際機場	110
外交部	110
全民	110
议员	110
晚年	110
出售	110
迁至	110
十二年	110
年中国	110
”、	110
办公室	110
交響	110
会的	110
法蘭西	110
rop	110
hem	109
事實上	109
▁Lib	109
不在	109
有助	109
追溯	109
因此在	109
手中	109
之一的	109
▁、	109
生涯	109
▁i	109
沙漠	109
全體	109
大使	109
信任	109
名人	109
市政	109
安裝	109
夺得	109
亲王	109
体育场	109
通往	109
封為	109
ó	108
相互作用	108
每一	108
的結果	108
新生	108
的美國	108
ign	108
類的	108
▁Sch	108
同时也	108
呈现	108
例外	108
聲音	108
ale	108
馬爾	108
內地	108
教師	108
創建	108
<0x87>	108
適合	108
形状	108
的阿	108
脊椎	108
再加上	108
條例	108
監督	108
造成了	108
海域	108
Xbox	108
杀死	108
公佈	108
伤亡	108
命名為	108
當年	108
洪武	108
▁刘	108
候選人	108
西里	108
交界	108
女王	108
世紀的	107
物件	107
▁Publ	107
古斯	107
的二	107
宣称	107
的內容	107
出現了	107
ox	107
可能性	107
军在	107
等同	107
性格	107
黑色	107
花园	107
仍是	107
物品	107
質疑	107
測試	107
维尔	107
情報	107
<0x96>	107
斯蒂	107
較低	107
▁除了	107
的北	107
此次	107
的控制	107
其为	107
上面	107
逃亡	107
转移	107
缅甸	107
交易所	107
市區	107
等级	107
<0x94>	107
平安	107
電台	107
長沙	107
洛杉磯	107
的大小	106
oy	106
活跃	106
雅典	106
是对	106
实体	106
之前的	106
历史学家	106
ST	106
的老	106
進行的	106
布鲁	106
挑戰	106
組織的	106
在一个	106
望遠鏡	106
的話	106
销售	106
▁y	106
零售	106
高山	106
公里的	106
UN	106
受傷	106
苏丹	106
福州	106
金山	106
原名	106
HT	106
阳县	106
轨道交通	106
珠海	106
孟加拉	106
的歌	106
下半	106
奴隸	106
水系	106
主演	106
候选人	106
关闭	105
兴趣	105
常被	105
年龄	105
档案	105
排除	105
三百	105
<0xBB>	105
》;	105
世的	105
雕塑	105
加入了	105
爵士	105
即可	105
前期	105
線的	105
願意	105
二次	105
顯著	105
财产	105
但仍	105
▁如果	105
辅助	105
完成了	105
僅次於	105
哺乳	105
人民法院	105
住宅	105
各级	105
左翼	105
兩次	105
山的	105
向南	105
<0xBE>	105
▁本	105
奪得	105
当选为	105
内蒙古自治区	105
州刺史	105
名詞	104
其為	104
和高	104
发现的	104
被认为	104
主体	104
格勒	104
▁Bl	104
▁陈	104
书籍	104
以为	104
eter	104
AM	104
深度	104
票房	104
可以使用	104
企圖	104
支出	104
奥尔	104
▁Ge	104
哥伦比亚	104
安东	104
格爾	104
喜歡	104
土木	104
ax	104
管理局	104
宗室	104
▁以下	104
的地區	104
不利	104
鎮壓	104
言論	104
華語	104
董事	104
廣西	104
省政府	104
麥克	104
的第	104
县的	104
伊利	104
耶路撒冷	104
決賽	104
格林	104
奏曲	104
确认	103
催化	103
真實	103
群体	103
哈拉	103
消除	103
?”	103
大奖	103
製片	103
无线电	103
恩斯	103
黃金	103
普魯	103
罪行	103
丹麥	103
資格	103
碰撞	103
的山	103
一座	103
ole	103
IP	103
办事处	103
建有	103
Mac	103
动作	103
日後	103
<0x82>	103
叛亂	103
顏色	103
盟軍	103
▁汉	102
enc	102
终于	102
娛樂	102
神話	102
输出	102
适合	102
更有	102
發揮	102
团结	102
▁当	102
教育家	102
iss	102
装备	102
地表	102
層的	102
平面	102
辐射	102
夏威夷	102
以至	102
供应	102
地上	102
标记	102
紅色	102
路军	102
行政區	102
CC	102
顾问	102
▁据	102
改名为	102
民俗	102
波羅	102
颁发	101
意志	101
做了	101
▁r	101
▁Sh	101
enn	101
動作	101
受欢迎	101
纪录	101
事实上	101
改进	101
在那	101
南朝	101
漸漸	101
消滅	101
具備	101
ü	101
數位	101
爾的	101
卡拉	101
局部	101
判斷	101
遇到	101
增强	101
年才	101
此前	101
药物	101
)-	101
引进	101
邀請	101
维吾尔	101
线性	101
民用	101
千瓦	101
原料	101
重慶	101
婦女	101
垃圾	101
接口	101
元帥	101
住在	101
ime	101
长子	101
电力	101
万元	101
泰国	101
波罗	101
从未	101
「-{	101
▁白	101
城堡	101
推理	100
說是	100
則為	100
ber	100
▁pro	100
光明	100
▁亚	100
人是	100
作品的	100
小學	100
发生了	100
为止	100
认可	100
▁日	100
眼睛	100
手法	100
的官方	100
合唱	100
退休	100
案例	100
和西	100
師範	100
這段	100
<0xBF>	100
持有	100
生活在	100
温带	100
年世界	100
直轄	100
治安	100
检察	100
供應	100
結束後	100
▁Man	100
月在	100
請求	100
公署	100
曾被	100
相连	100
王朝的	100
月起	100
網球	100
運算	99
有一個	99
▁布	99
orld	99
始人	99
分歧	99
神的	99
布莱	99
ings	99
延續	99
具體	99
名义	99
▁Ad	99
動畫	99
模仿	99
情況下	99
得出	99
?」	99
<0x8B>	99
適應	99
彗星	99
足以	99
的名称	99
效应	99
前后	99
<0xB3>	99
收回	99
为此	99
自殺	99
inux	99
陣營	99
办公	99
丈夫	99
▁杜	99
參選	99
GA	99
攻勢	99
锦标赛	99
眾議院	99
:#	99
维也纳	99
被認為	98
所得	98
而有	98
出发	98
更高	98
创始人	98
生活的	98
初步	98
aw	98
战场	98
参考	98
而來	98
辦法	98
良好	98
民意	98
假设	98
▁東	98
维奇	98
▁这	98
内陆	98
中日	98
TE	98
高達	98
的一次	98
城县	98
不敢	98
驱逐	98
英軍	98
证券	98
平方米	98
商务	98
电视剧	98
向前	98
度使	98
二百	97
一直到	97
神秘	97
▁其他	97
▁Par	97
▁Fran	97
可能会	97
▁美	97
▁an	97
為人	97
▁一般	97
準確	97
的文章	97
神經	97
共識	97
以东	97
分別為	97
合同	97
乡村	97
托勒	97
率先	97
六十	97
英里	97
在前	97
<0x85>	97
平方千米	97
委会	97
面臨	97
IX	97
下午	97
收到	97
同日	97
年春	97
数百	97
流放	97
隶属	97
篮球	97
評價	97
立陶宛	97
身分	97
收錄	97
arl	96
马尔	96
为其	96
经济学	96
良好的	96
lect	96
順序	96
電視劇	96
攝影	96
報紙	96
美的	96
的和	96
後來的	96
國立臺灣	96
律师	96
羅伯特	96
痛苦	96
谴责	96
万美元	96
邊境	96
的金	96
团队	96
该国	96
:,	96
大街	96
考试	96
遊行	96
自稱	96
月中旬	96
隨即	96
安徽省	96
撤出	96
牡丹	96
俱乐部	96
运动员	96
秘书	96
南斯拉夫	96
少量	96
幾何	95
▁com	95
面对	95
za	95
▁Pol	95
則以	95
充滿	95
歌舞	95
端的	95
工廠	95
僅有	95
修订	95
最少	95
局的	95
也可能	95
ages	95
华东	95
洛斯	95
恒星	95
星座	95
納入	95
幻想	95
數十	95
聲稱	95
中国科学院	95
全美	95
号为	95
女兒	95
<0xA2>	95
人為	95
<0xE4>	95
杀害	95
▁上海	95
乐团	95
領先	95
軍團	95
大選	95
港元	95
外交官	95
赛季	95
是為了	94
沃尔	94
ald	94
黑暗	94
▁其中	94
吉尔	94
▁洛	94
uss	94
▁as	94
是用	94
不多	94
ject	94
藝術家	94
永遠	94
附加	94
的全	94
培育	94
瑟夫	94
片段	94
▁水	94
占地	94
葡萄	94
指數	94
指数	94
提前	94
上任	94
TP	94
SE	94
維亞	94
姆斯	94
驻地	94
行政區劃	94
ā	94
威尼斯	94
訊息	93
時常	93
做為	93
的结果	93
ese	93
ited	93
以往	93
出于	93
▁对	93
ome	93
att	93
競賽	93
的音	93
管道	93
地點	93
醫師	93
當地的	93
流入	93
地图	93
向西	93
南昌	93
飛機	93
清真寺	93
勋章	93
言论	93
奧運會	93
叛乱	93
登上	93
钢铁	93
海关	93
代表团	93
各有	93
殺害	93
分布于	93
文藝	92
會被	92
orge	92
赫尔	92
也能	92
▁小	92
里克	92
事实	92
者在	92
資金	92
則在	92
蘋果	92
品質	92
溝通	92
是一位	92
这也是	92
來看	92
重力	92
先前	92
▁Arch	92
AL	92
合金	92
博物	92
安娜	92
歡迎	92
高地	92
FC	92
改编	92
日報	92
生前	92
接受了	92
被捕	92
周圍	92
orn	92
的說法	92
王位	92
南路	92
待遇	92
东南部	92
领地	92
代表作	92
background	92
年代的	91
為其	91
线的	91
▁Or	91
尋求	91
二战	91
()、	91
多年的	91
回归	91
了一個	91
回應	91
<0x81>	91
大師	91
rat	91
嚴重的	91
▁與	91
認可	91
最初的	91
点的	91
orm	91
和水	91
年美国	91
選出	91
軍人	91
手机	91
新一	91
危險	91
举行的	91
出生于	91
IA	91
军官	91
達爾	91
第一次世界大	91
瑪麗	91
艺术家	91
属的	91
后被	91
<0xB1>	91
交汇	91
向北	91
五世	91
帝王	91
人民共和國	91
古蹟	91
銷量	91
賽季	91
足夠	90
函數	90
▁Ox	90
大地	90
▁Har	90
▁al	90
列出	90
期望	90
廣告	90
譯為	90
导弹	90
测试	90
近似	90
慶祝	90
誕生	90
強制	90
認知	90
▁法国	90
免費	90
而後	90
滿足	90
立刻	90
天文台	90
發現了	90
窗口	90
首個	90
还在	90
二十年	90
检测	90
高达	90
黑龙江省	90
第十四	90
交往	90
很高	90
IL	90
場合	90
書院	90
戰爭中	90
注入	90
北魏	90
第十三	90
歲時	90
司令员	90
<0x8D>	90
列车	90
氯化	90
》-	90
出來的	89
心的	89
史蒂芬	89
詳細	89
的行為	89
omas	89
阅读	89
事件的	89
质疑	89
集的	89
是從	89
人权	89
故意	89
格雷	89
閱讀	89
包圍	89
哈里	89
撤銷	89
」、	89
县城	89
連任	89
工商	89
呼籲	89
曾是	89
理事会	89
許可	89
紧急	89
神聖	89
攻克	89
不起	89
一条	89
<0xB4>	89
万平方米	89
爱国	89
回国	89
民事	89
加勒比	89
競選	89
开工	89
使者	89
rav	89
可用	88
確認	88
又被	88
數的	88
大衛	88
在该	88
和的	88
人心	88
巴哈	88
視覺	88
寻找	88
产物	88
纳德	88
了对	88
CP	88
▁System	88
也沒有	88
預算	88
進口	88
依賴	88
一面	88
推進	88
元的	88
▁第三	88
生殖	88
级别	88
<0x8F>	88
海水	88
不及	88
南美洲	88
三位	88
轰炸	88
广州市	88
类似于	88
ello	88
入选	88
少女	88
届全国人民代表大会	88
向东	88
班機	88
!”	88
製作人	88
ail	87
忽略	87
ated	87
▁;	87
感觉	87
之事	87
▁or	87
fer	87
為此	87
可靠	87
写了	87
SP	87
觀眾	87
取代了	87
ö	87
与此同时	87
幸福	87
安定	87
這項	87
尺寸	87
原因是	87
卡特	87
指责	87
▁但	87
肺炎	87
进口	87
伺服	87
爭取	87
煤炭	87
主動	87
推荐	87
继任	87
打倒	87
全国重点文物保护单位	87
成年	87
生母	87
子彈	87
形狀	86
下去	86
是其	86
是個	86
ext	86
▁當	86
荣誉	86
anguage	86
ork	86
也没有	86
人類的	86
ions	86
▁sub	86
▁cl	86
▁American	86
在內	86
明治	86
▁对于	86
指南	86
将会	86
▁Comm	86
聖經	86
的音樂	86
引進	86
使他	86
格鲁	86
联合会	86
並與	86
帶領	86
气象	86
兩年	86
丁堡	86
名義	86
年成立	86
村的	86
遊客	86
职位	86
黎巴嫩	86
享年	86
成績	86
黨員	86
卫视	86
尚有	86
設計師	86
俗稱	86
而死	86
次子	86
走廊	86
信號	86
乐队	86
京都	86
司令部	86
院長	86
▁初	86
Sh	86
太守	86
的最大	85
OM	85
之所以	85
公平	85
以及在	85
苏格兰	85
用在	85
rand	85
香港的	85
當作	85
迄今	85
意外	85
洛夫	85
日本人	85
oll	85
並不是	85
上了	85
马克	85
飲食	85
大师	85
失去了	85
速率	85
IM	85
承諾	85
同期	85
IF	85
早年	85
觉得	85
▁最	85
首度	85
▁由	85
落成	85
坐落	85
游击	85
建築師	85
▁×	85
所使用的	84
可能的	84
▁卡	84
皆為	84
已在	84
ull	84
ycl	84
外界	84
而成的	84
进行的	84
引起了	84
reat	84
始終	84
之人	84
详细	84
机的	84
集成	84
多少	84
機的	84
對稱	84
實體	84
鑽石	84
▁国家	84
保證	84
溶液	84
移至	84
只在	84
跨越	84
蔬菜	84
所需	84
设计的	84
西岸	84
登陆	84
的成員	84
▁中央	84
民生	84
党员	84
費用	84
一份	84
女儿	84
看見	84
都能	84
圣经	84
▁楊	84
EN	84
铯	84
致使	83
意思是	83
創新	83
当中	83
▁Be	83
▁London	83
能在	83
人稱	83
的特殊	83
开始在	83
Google	83
的行为	83
掌管	83
缩写	83
▁Science	83
ym	83
▁法	83
第一代	83
可是	83
小組	83
維奇	83
是大	83
馬拉	83
這類	83
燃燒	83
輔助	83
西班牙语	83
是美國	83
辦公室	83
未知	83
伙伴	83
内有	83
移交	83
福建省	83
營運	83
码头	83
北上	83
接待	83
负责人	83
告诉	83
分享	83
一直是	83
收购	83
西路	83
聞名	83
乌克兰	83
郑州	83
抗战	83
成人	83
安县	83
预算	83
白人	83
迈克尔	83
委员会委员	83
印第安	83
森堡	83
查爾斯	83
對其	82
SA	82
神话	82
对话	82
中使用	82
評估	82
改進	82
重點	82
案的	82
模拟	82
仅有	82
ner	82
過度	82
部分的	82
尋找	82
立场	82
寻求	82
下列	82
发生在	82
足够	82
厚的	82
銀河	82
意為	82
第一批	82
▁吴	82
危险	82
分辨	82
包围	82
便利	82
研發	82
开幕	82
探测	82
货运	82
招生	82
除非	82
欧元	82
告訴	82
两年	82
團結	82
山市	82
不大	82
节点	82
加盟	82
Hz	82
寺院	82
金斯	82
登记	82
师范	82
副主任	82
Or	82
蒂斯	82
事實	81
术语	81
正義	81
斯和	81
▁虽然	81
ublic	81
▁朱	81
的口	81
器和	81
ount	81
年代末	81
更大	81
的名稱	81
培養	81
畢業	81
他与	81
薩克	81
高於	81
活躍	81
▁若	81
直徑	81
临床	81
事宜	81
<0x83>	81
提案	81
席位	81
會上	81
人民幣	81
公安	81
航班	81
月下旬	81
大厦	81
Be	81
秘书长	81
弟弟	81
次日	81
開幕	81
爪哇	81
阿姆	81
公共交通	81
國家公園	81
觀光	81
最后一	81
男主角	81
選舉中	81
啟用	81
車隊	81
情形	80
米蘭	80
ret	80
ichard	80
下來	80
大众	80
前後	80
成绩	80
▁尽管	80
会被	80
学位	80
認定	80
較少	80
輸出	80
一方	80
風險	80
米亞	80
菲利普	80
工會	80
De	80
義務	80
否則	80
证实	80
過於	80
小行星	80
在內的	80
融入	80
激素	80
可以是	80
短暫	80
挑战	80
水域	80
食用	80
在外	80
相當於	80
地方政府	80
布局	80
新增	80
科尔	80
派人	80
現在的	80
带领	80
群的	80
戰敗	80
防守	80
希伯	80
重量	80
厘米	80
儲存	79
▁Book	79
erv	79
▁胡	79
真的	79
来自于	79
cess	79
erl	79
und	79
.)	79
rary	79
▁陳	79
的那	79
传输	79
▁th	79
ä	79
出現的	79
不一	79
線上	79
同步	79
和其	79
驅逐	79
了許多	79
丹尼	79
出一	79
主办	79
强制	79
并与	79
啟動	79
新型	79
父子	79
修訂	79
担心	79
客户	79
争取	79
人次	79
插入	79
團隊	79
电台	79
参加了	79
乘客	79
之際	79
▁據	79
與此	79
德里克	79
传教士	79
耶稣	79
等於	79
校园	79
無人	79
演唱會	79
eat	79
每次	78
耶穌	78
▁Ind	78
orth	78
ambridge	78
que	78
爱德华	78
竣工	78
配置	78
Sp	78
▁ch	78
ography	78
真人	78
▁He	78
低於	78
暴露	78
两位	78
分散	78
olution	78
發電	78
日和	78
相繼	78
的代	78
获取	78
就被	78
分泌	78
办法	78
立方	78
一路	78
隔年	78
发行的	78
宣誓	78
名单	78
奉天	78
強大	78
(“	78
的古	78
御史	78
始建于	78
任內	78
終結	78
巴爾	78
敵人	78
蒋介石	78
救援	78
▁圣	78
CH	78
模擬	77
初始	77
Mar	77
▁Ac	77
ht	77
主动	77
並且在	77
▁Mac	77
▁et	77
的總	77
者是	77
ance	77
▁Colle	77
)」	77
雅各	77
▁不	77
本書	77
资格	77
艦隊	77
訊號	77
周邊	77
藥物	77
乌斯	77
檢查	77
面上	77
违反	77
分校	77
註冊	77
<0x9F>	77
<0xA3>	77
的南	77
服役	77
天府	77
共计	77
殺死	77
AD	77
岁时	77
夏天	77
革命軍	77
創辦	77
武昌	77
政协	77
给了	77
旧址	77
十四年	77
租借	77
船舶	77
校園	77
菩薩	77
在台灣	77
▁武	77
坦克	77
君士坦	77
示范	77
十八年	77
野战	77
議院	77
出發	76
向量	76
berg	76
▁對	76
的版本	76
ood	76
短暂	76
搜索	76
▁new	76
場所	76
早已	76
種類	76
這時	76
馬斯	76
爾特	76
不知道	76
刊登	76
oz	76
而已	76
不等	76
透明	76
構造	76
木材	76
▁Bi	76
湖北省	76
來到	76
地点	76
中毒	76
升级	76
覆蓋	76
審判	76
億元	76
古城	76
站在	76
军人	76
当局	76
长官	76
姓名	76
大字	76
ON	76
戈尔	76
公子	76
CN	76
而得名	76
城墙	76
承担	76
航空公司	76
分行	76
史料	76
▁永	76
入選	76
瀑布	76
沙特	76
雕像	76
威爾斯	76
即為	75
編碼	75
那里	75
欢迎	75
▁该	75
▁Eng	75
irst	75
▁張	75
感受	75
慢慢	75
同时也是	75
技能	75
出版的	75
單獨	75
Ph	75
迪南	75
不用	75
女神	75
▁Music	75
流動	75
保險	75
保留了	75
混亂	75
ina	75
天王	75
較高	75
傳染	75
工会	75
通車	75
yle	75
職位	75
中文版	75
〉、〈	75
传媒	75
三十年	75
三千	75
不幸	75
▁除	75
好友	75
航行	75
世界杯	75
低地	75
兵器	75
大区	75
北美洲	75
造型	75
校區	75
的自	74
確實	74
arg	74
▁ex	74
ein	74
的事件	74
确保	74
数据库	74
地址	74
二级	74
混淆	74
喜剧	74
咖啡	74
描寫	74
頻率	74
皆有	74
限於	74
更大的	74
不變	74
大學的	74
ring	74
危害	74
▁台灣	74
一支	74
元件	74
進行了	74
種植	74
ress	74
和他的	74
用了	74
行程	74
加尔	74
名單	74
日晚	74
牛津	74
随即	74
万历	74
▁杨	74
扩建	74
遺址	74
秋季	74
加里	74
二戰	74
緊急	74
大略	73
年份	73
本來	73
align	73
交叉	73
克利	73
▁黑	73
上半	73
inal	73
ery	73
ans	73
始於	73
有意	73
理查	73
哈德	73
▁des	73
斯特拉	73
虚拟	73
ational	73
ural	73
aj	73
旋律	73
ator	73
斯在	73
或稱	73
人格	73
還要	73
处的	73
▁光	73
醫藥	73
福德	73
在的	73
▁为	73
绿色	73
ates	73
協調	73
民兵	73
是因为	73
RT	73
宿舍	73
江西省	73
為由	73
埃爾	73
》()	73
年號	73
布政使	73
行政区域	73
贵州省	73
充满	73
典礼	73
原有的	73
这场	73
得票	73
普拉	73
曼哈	73
大名	73
广西壮族自治区	73
<0xCA>	73
份子	72
res	72
补充	72
▁Sc	72
改稱	72
评估	72
ific	72
型態	72
三種	72
上演	72
設定	72
感覺	72
藉此	72
顧問	72
ark	72
师范大学	72
社交	72
涵蓋	72
在高	72
天氣	72
马丁	72
)》	72
东北部	72
各界	72
最快	72
监察	72
民航	72
厦门	72
剩下	72
目的地	72
的消息	72
商店	72
秘書長	72
爱情	72
間接	72
改編	72
的白	72
世宗	72
併入	72
滨海	72
一代	72
绍兴	72
第一次世界大战	72
供奉	72
擔心	72
癌症	72
天后	72
教練	72
共和党	72
▁罗	72
ington	72
轉向	71
之後的	71
家和	71
ise	71
并以	71
克莱	71
卡西	71
纳斯	71
劇本	71
Fran	71
ater	71
保健	71
適用於	71
排放	71
不論	71
平行	71
的女性	71
學士	71
身為	71
原有	71
itt	71
▁der	71
終止	71
天空	71
地帶	71
yl	71
位在	71
驅動	71
降雨	71
奥林匹克运动会	71
承诺	71
自行车	71
獎最佳	71
不合	71
对方	71
面前	71
業務	71
部部长	71
公使	71
里亞	71
縮寫	71
TC	71
▁约翰	71
數個	71
他曾	71
被俘	71
幕府	71
一級	71
颱風	71
一等	71
时报	71
河畔	71
立法院	71
日治時期	71
羅馬尼亞	71
囚犯	71
加索	71
选为	71
参谋长	71
大选	71
̍	71
John	70
處的	70
视频	70
和阿	70
作品中	70
anc	70
转向	70
ke	70
在上	70
來自於	70
▁隨著	70
伍德	70
的精神	70
累積	70
開啟	70
亦可	70
創辦人	70
獲得了	70
江戶	70
即将	70
湯姆	70
盟友	70
排行	70
哥倫比亞	70
论坛	70
為大	70
拉夫	70
得名	70
own	70
当地的	70
繼任	70
十七年	70
對方	70
電信	70
乡镇	70
斯里	70
是中	70
傷亡	70
步兵	70
樂隊	70
改制	70
BBC	70
編號	70
部作品	70
曾有	69
duction	69
暗示	69
的兩	69
蒙德	69
慕尼黑	69
▁Fl	69
情緒	69
亦為	69
回应	69
围绕	69
成立于	69
識別	69
題材	69
蒸汽	69
可供	69
ison	69
ener	69
場的	69
最好的	69
的人士	69
ower	69
公正	69
的心	69
藍色	69
化為	69
比率	69
命名的	69
ional	69
修复	69
維爾	69
隔离	69
流的	69
水果	69
幹部	69
繁忙	69
评为	69
年秋	69
麦克	69
行政長官	69
林肯	69
首領	69
哈爾	69
三等	69
Pro	69
中以	69
後被	69
爭奪	69
新华	69
球場	69
电影节	69
赢得	69
政委	69
金像	69
推薦	69
巴赫	68
▁Is	68
雕刻	68
▁作为	68
的力量	68
sch	68
▁正	68
保安	68
装置	68
Bl	68
的家	68
安德烈	68
资助	68
不被	68
很容易	68
透露	68
故此	68
碩士	68
各式	68
并被	68
順利	68
設計的	68
譴責	68
相邻	68
廠商	68
专科	68
总局	68
敏感	68
奧林匹克運動會	68
是他	68
的日本	68
主辦	68
未被	68
揭露	68
迎接	68
刊物	68
應用程式	68
啤酒	68
物资	68
六世	68
新城	68
现任	68
圆形	68
服装	68
队伍	68
害怕	68
祖母	68
哥哥	68
拉多	68
甘肃省	68
霸王	68
小提琴	68
田徑	68
比利	68
<0xCB>	68
”()	67
熟悉	67
rans	67
所在的	67
法拉	67
两条	67
hel	67
隶属于	67
件事	67
▁哈	67
▁Art	67
個別	67
New	67
开设	67
實力	67
等待	67
ASA	67
的美国	67
反射	67
▁科	67
ichael	67
假日	67
斯洛	67
随机	67
防禦	67
第一屆	67
克斯坦	67
依法	67
年以來	67
携带	67
穿越	67
月被	67
政務	67
Net	67
部件	67
rag	67
西伯	67
五個	67
封为	67
ett	67
直属	67
外籍	67
宁波	67
日被	67
巴布	67
▁德	67
拿下	67
搬到	67
布萊	67
布雷	67
UTC	67
!!	67
無限	66
▁vol	66
ris	66
的主題	66
茨基	66
在法国	66
马里	66
▁la	66
▁For	66
清晰	66
和解	66
▁Te	66
ound	66
片的	66
流行音樂	66
他們在	66
引起的	66
轉移	66
效力	66
▁Life	66
巨星	66
不含	66
之內	66
▁這	66
这项	66
年正式	66
委托	66
印度尼西亚	66
運動會	66
判决	66
!」	66
交給	66
討伐	66
時報	66
EX	66
關閉	66
附屬	66
▁為	66
奧斯	66
滑雪	66
去了	66
車手	66
多倫多	66
了其	65
拉尔	65
埃德	65
ony	65
ury	65
▁International	65
展現	65
主角	65
侍郎	65
的事情	65
的好	65
菲尔德	65
發生在	65
同時也是	65
▁亞	65
圍繞	65
世界大	65
ius	65
异常	65
▁可	65
近地	65
Ge	65
她們	65
會長	65
垂直	65
自己是	65
的速度	65
威斯	65
富有	65
▁夏	65
纤维	65
的第三	65
管理的	65
的身份	65
頻道	65
巴尔	65
辭職	65
日下午	65
姐妹	65
資助	65
在家	65
部下	65
部和	65
Ap	65
蓝色	65
以致	65
徐州	65
总额	65
上方	65
装饰	65
方形	65
十五年	65
前夕	65
預備	65
建築物	65
上午	65
鱼类	65
郡王	65
战士	65
罪名	65
▁孙	65
隊長	65
主場	65
回合	65
德爾	64
卓越	64
▁con	64
就此	64
▁War	64
嘉靖	64
光的	64
第一任	64
斯拉夫	64
▁人	64
▁pp	64
只有一	64
並有	64
火車	64
酒吧	64
▁阿尔	64
往來	64
爾頓	64
次的	64
商務	64
強度	64
網頁	64
卜杜	64
一片	64
氣象	64
登記	64
補充	64
(《	64
描绘	64
和三	64
“”	64
奪取	64
更名	64
春季	64
俱樂部	64
ger	64
Ad	64
对称	64
一步	64
卸任	64
放置	64
取了	64
死於	64
摧毁	64
收录	64
见于	64
开办	64
數百	64
右翼	64
▁平	64
水上	64
设在	64
加拿	64
跑道	64
但卻	63
▁Wh	63
拉的	63
▁j	63
▁Ger	63
公告	63
亦在	63
广告	63
的电影	63
电气	63
ral	63
上映	63
在當時	63
初中	63
的機會	63
判決	63
不了	63
ere	63
模糊	63
克萊	63
最小	63
工藝	63
研发	63
边缘	63
等級	63
注射	63
一共	63
货物	63
预计	63
年有	63
介石	63
以東	63
年人口	63
年夏季	63
他又	63
▁使用	63
是一名	63
名誉	63
推出了	63
多瓦	63
波士顿	63
当天	63
制片	63
倫斯	63
是被	63
<0xF0>	63
陕西省	63
国道	63
福特	63
拉特	63
加斯	63
安置	63
兵团	63
登堡	63
大戰	63
區內	63
会长	63
罗德	63
▁成	63
兩位	63
在三	63
生日	63
ki	63
▁Rev	62
歸類	62
▁pr	62
▁Col	62
在本	62
▁八	62
人有	62
,,	62
的情形	62
里希	62
无人	62
▁be	62
▁Soc	62
以下的	62
摄影	62
』,	62
現場	62
不太	62
所需的	62
ular	62
生產的	62
說服	62
改組	62
:(	62
▁Web	62
邊的	62
很有	62
水中	62
最新	62
行業	62
他为	62
助理	62
海底	62
在地	62
编制	62
多位	62
年代中期	62
經費	62
事件中	62
並由	62
委任	62
发送	62
▁到	62
Le	62
对手	62
巴斯	62
凤凰	62
的下	62
選為	62
秘書	62
戰場	62
其父	62
片中	62
暫時	62
物資	62
山西省	62
大火	62
▁江	62
傳媒	62
邮政	62
西站	62
▁Com	62
領地	62
决赛	62
叙利亚	62
众议院	62
里尼	62
德克	62
GT	62
弗拉基	62
多斯	62
只好	62
影展	62
阿布	62
瓦拉	62
總督府	62
any	61
一條	61
音樂劇	61
▁梁	61
人事	61
推測	61
oint	61
圖像	61
lex	61
要在	61
工作者	61
系列的	61
圖書	61
鄰近	61
衝擊	61
陸地	61
人称	61
肌肉	61
試驗	61
应对	61
)、(	61
年日本	61
則由	61
公分	61
預計	61
奥斯	61
改用	61
启用	61
榮譽	61
演讲	61
周刊	61
第二個	61
保卫	61
的花	61
山县	61
区为	61
多家	61
八十	61
常规	61
臺灣省	61
新竹	61
▁wh	61
關東	61
安市	61
在英國	61
这部	61
兰州	61
专辑	61
是日本	61
í	61
本片	61
钫	61
▁史	60
季節	60
所屬	60
▁後	60
▁ph	60
ument	60
讀者	60
也称	60
AA	60
ograph	60
中將	60
的電影	60
類型的	60
▁外	60
選民	60
為何	60
就能	60
的道路	60
製成	60
所知	60
與大	60
參見	60
飞行	60
監獄	60
投入使用	60
國有	60
的學生	60
每月	60
无线	60
處理器	60
當天	60
演講	60
是一部	60
DA	60
玛丽	60
所辖	60
所属	60
合并为	60
打造	60
靈魂	60
安東尼	60
道歉	60
步行	60
此地	60
單曲	60
五人	60
参议员	60
建筑物	60
三角形	60
莎白	60
球會	60
覺得	59
iet	59
大卫	59
▁und	59
優秀	59
其他人	59
流程	59
比起	59
▁其	59
ital	59
這也是	59
现场	59
采用了	59
淘汰	59
從未	59
alk	59
ays	59
飛行	59
檢測	59
▁拉	59
暴雨	59
發現的	59
的一部	59
障礙	59
數目	59
面积为	59
飛彈	59
招募	59
格拉斯	59
民政	59
翌年	59
基隆	59
舉行的	59
▁長	59
瑞拉	59
的副	59
yp	59
氏的	59
耶律	59
图书	59
北路	59
文物保护单位	59
批复	59
▁至	59
舰队	59
上将	59
江市	59
北站	59
肯尼	59
敘述	58
爾夫	58
▁Mat	58
▁Rep	58
真相	58
▁Her	58
ement	58
描繪	58
▁黃	58
纪念碑	58
愛德華	58
剧本	58
劇場	58
台灣的	58
享受	58
直播	58
了在	58
因應	58
納德	58
前进	58
amb	58
發生的	58
的設計	58
維斯	58
▁Gl	58
://	58
讲述	58
太多	58
研制	58
致命	58
在线	58
累计	58
普查	58
她在	58
舊金山	58
帶著	58
總裁	58
EM	58
拉姆	58
穿过	58
升格	58
戰中	58
高架	58
电车	58
反派	58
招收	58
▁第四	58
內亞	58
隊的	58
竞选	58
幼稚園	58
女主角	58
兩名	58
東京都	58
積分	57
吉爾	57
般的	57
住房	57
发掘	57
rie	57
ystem	57
▁Society	57
ʔ	57
畫面	57
描述了	57
樂器	57
SS	57
仍未	57
跟隨	57
一場	57
優先	57
第二代	57
他和	57
先行	57
旋轉	57
外線	57
探險	57
症状	57
外科	57
硫酸	57
委員會委員	57
制裁	57
國務	57
動員	57
年时	57
加坡	57
克羅	57
廣東省	57
安葬	57
原来	57
▁One	57
III	57
年任	57
南站	57
职工	57
公寓	57
用品	57
书法	57
读书	57
監察	57
高雄	57
加拉	57
車輛	57
機車	57
ē	57
中和	57
塞爾維亞	57
改名為	57
尼亚州	57
议院	57
上將	57
顗	57
海的	56
一般的	56
▁為了	56
||||	56
挖掘	56
▁或	56
的设计	56
▁Vol	56
剧场	56
考量	56
賦予	56
搖滾	56
atus	56
集會	56
mann	56
他為	56
LE	56
▁维	56
培训	56
強化	56
一直在	56
印度洋	56
单元	56
排行榜	56
苹果	56
En	56
RE	56
将在	56
週年	56
教区	56
出生於	56
乘坐	56
強大的	56
州立	56
展览	56
九州	56
被人	56
錦標賽	56
除外	56
分区	56
▁木	56
ī	56
德州	56
公斤	56
他與	56
委會	56
<0xE2>	56
加泰	56
配音員	56
奖项	55
une	55
在海	55
ous	55
觀看	55
str	55
德勒	55
Re	55
更好	55
現有	55
電力	55
出版了	55
剩餘	55
瓦爾	55
tr	55
主编	55
▁National	55
伯恩	55
(;	55
():	55
维克	55
他们在	55
聯絡	55
全线	55
近平	55
省和	55
OR	55
江蘇	55
論壇	55
第二天	55
總會	55
造船	55
中央电视台	55
氨酸	55
無效	55
平坦	55
改建	55
足球俱乐部	55
玫瑰	55
年香港	55
緊張	55
两侧	55
房子	55
罗马尼亚	55
尼奥	55
AV	55
ative	54
注意到	54
hed	54
▁Cent	54
▁Mon	54
erm	54
於此	54
路的	54
oss	54
圓形	54
▁Ab	54
貝克	54
告知	54
▁國際	54
學位	54
力和	54
虛擬	54
olf	54
轟炸	54
星際	54
▁威廉	54
年去世	54
總共	54
摩洛哥	54
存活	54
年人口普查	54
東海	54
珍珠	54
升級	54
入口	54
回家	54
就讀	54
本部	54
▁曾	54
很好	54
發售	54
共产	54
清理	54
立法委員	54
获胜	54
標示	54
新西兰	54
火车站	54
ë	54
長官	54
张家	54
郡的	54
骑士	54
天堂	54
史密斯	54
带着	54
▁→	54
一開始	53
做的	53
總是	53
纖維	53
oug	53
蒂安	53
凭借	53
伊斯	53
."	53
▁All	53
▁Des	53
的資料	53
科幻	53
年版	53
▁主要	53
命運	53
▁),	53
繪畫	53
彩色	53
他以	53
精英	53
使命	53
任教	53
強的	53
▁六	53
灭绝	53
沒有任何	53
辦理	53
死者	53
者為	53
《》,	53
销量	53
夥伴	53
的成员	53
裝備	53
站的	53
营业	53
帕拉	53
呼吁	53
讀書	53
參謀	53
原為	53
ney	53
yd	53
半部	53
涉嫌	53
葡萄酒	53
男人	53
女人	53
風暴	53
公所	53
薩爾	53
ose	53
奧爾	53
影视	53
比爾	53
火车	53
哥特	53
杰克	53
谿	53
斯顿	53
法蘭	53
職棒	53
聖誕	53
後才	52
限定	52
其中一個	52
化成	52
人力	52
萬美元	52
摩尔	52
克尔	52
▁Robert	52
克罗	52
iation	52
ors	52
▁孫	52
塔尔	52
一事	52
▁Am	52
則會	52
股票	52
歇尔	52
出去	52
手機	52
鋼鐵	52
信用	52
▁吉	52
——《	52
轉型	52
▁Bar	52
封鎖	52
好者	52
時刻	52
為期	52
建於	52
生素	52
农场	52
但被	52
遷至	52
代表團	52
年加入	52
訴訟	52
將在	52
三名	52
我是	52
哈佛	52
美国国家	52
一架	52
牧師	52
贊助	52
〉(	52
▁等	52
colspan	52
多夫	52
二期	52
十六年	52
之心	52
西省	52
长约	52
多项	52
送往	52
和一	52
▁四	52
特有	52
被告	52
日治	52
日文	52
捷克斯洛伐克	52
坐标	52
重返	52
BE	52
馬丁	52
龙江	52
清水	52
保定	52
俄罗斯联邦	52
王后	52
▁#	51
獎項	51
▁艾	51
▁Qu	51
▁Co	51
ham	51
異常	51
bert	51
IG	51
典禮	51
和小	51
放映	51
節奏	51
均為	51
OT	51
ican	51
▁And	51
上一	51
原为	51
▁Ap	51
施工	51
青春	51
▁神	51
這裡	51
UT	51
改由	51
年第	51
erg	51
发布了	51
专用	51
▁托	51
▁被	51
老師	51
之時	51
攜帶	51
由其	51
支部	51
通稱	51
主人	51
:)	51
他對	51
ld	51
▁Play	51
官方网站	51
增至	51
脂肪	51
金馬	51
英九	51
维吾尔自治区	51
撤回	51
董事长	51
排球	51
老挝	51
顺利	51
新北市	51
香港電影	51
艺人	51
天才	51
境外	51
▁列	51
世界盃	51
寶石	51
站台	51
地在	50
大獎	50
iew	50
普罗	50
强度	50
弗兰	50
德罗	50
特和	50
耶夫	50
费尔	50
ield	50
▁Trans	50
之為	50
青少年	50
劇情	50
后在	50
▁Sci	50
ren	50
视觉	50
言人	50
曲的	50
美術	50
重組	50
最好	50
一群	50
過的	50
ien	50
哈特	50
城鎮	50
赫爾	50
相較於	50
開設	50
船只	50
风险	50
年因	50
领事馆	50
原型	50
中国大陆的	50
(,),	50
年他	50
副总	50
休息	50
一职	50
办公厅	50
老人	50
暗殺	50
延長	50
拯救	50
代號	50
推出的	50
摩爾	50
名叫	50
合作的	50
的儿子	50
更名為	50
台的	50
在中国大陆	50
公会	50
俄亥俄	50
北面	50
神父	50
ade	50
降雨量	50
諮詢	50
▁加	50
▁利	50
混血	50
福音	50
配角	50
法師	50
利安	50
羅德	49
取自	49
▁As	49
▁Gu	49
oth	49
▁ab	49
▁Nat	49
ters	49
ych	49
維多利亞	49
▁英國	49
法人	49
▁David	49
年與	49
範圍內	49
原來	49
晶体	49
亦被	49
向上	49
▁Tr	49
病例	49
再生	49
香港政府	49
碎片	49
冠狀	49
的黑	49
不良	49
年首次	49
連同	49
喜愛	49
裝飾	49
▁China	49
编号	49
ene	49
诉讼	49
第一名	49
直隸	49
花園	49
的父親	49
的愛	49
ream	49
的妻子	49
▁因	49
联络	49
意圖	49
是一座	49
股份	49
否認	49
零件	49
党委	49
中方	49
保加利亞	49
美國海軍	49
任職	49
祖籍	49
▁劉	49
一期	49
任职	49
西州	49
不佳	49
西比	49
玻利	49
感染者	49
铷	49
保加利亚	49
礽	49
亦會	48
被發現	48
重複	48
iel	48
▁Mod	48
▁苏	48
ume	48
gel	48
漫画	48
▁Pe	48
還在	48
IR	48
▁Research	48
Ex	48
Me	48
▁Work	48
▁Brit	48
西蒙	48
▁同	48
內有	48
一項	48
地亚	48
交戰	48
位于中国	48
社團	48
巴拿	48
策劃	48
事後	48
即將	48
陝西	48
普利	48
捐款	48
日上午	48
预备	48
设计师	48
的一位	48
號的	48
泰山	48
受害者	48
线上	48
鸟类	48
吉斯	48
▁Cal	48
建筑师	48
党委书记	48
勝出	48
分區	48
的歌曲	48
公墓	48
威尔士	48
的一座	48
美麗	48
小姐	48
飛行員	48
橄欖	48
办事	48
旗下	48
:),	48
直径	48
稱號	48
政治部	48
克拉克	48
騎士	48
是法国	48
<0xC4>	48
而出	47
▁Fre	47
短篇	47
短期	47
希尔	47
加密	47
formation	47
▁—	47
".	47
」()	47
回憶	47
圖案	47
兩條	47
交由	47
▁Mc	47
rad	47
fl	47
SN	47
克勞	47
OH	47
rib	47
He	47
ero	47
段的	47
是位于	47
每平方公里	47
執導	47
乒乓	47
球迷	47
虐待	47
ote	47
尼日	47
公會	47
osh	47
原本的	47
接到	47
後於	47
大和	47
展覽	47
聚落	47
後方	47
延伸至	47
委常委	47
每周	47
愛的	47
你的	47
亞美尼亞	47
台地	47
主教座堂	47
家庄	47
州长	47
妹妹	47
腓特烈	47
在那里	47
資料庫	46
ari	46
▁Center	46
▁Ne	46
美人	46
就算	46
动画	46
愛情	46
各項	46
als	46
▁對於	46
uan	46
ean	46
樣的	46
《》(	46
▁pl	46
▁长	46
預防	46
风暴	46
线和	46
塑料	46
▁万	46
在第	46
可達	46
MP	46
留学	46
夫婦	46
設於	46
里奇	46
史蒂	46
即時	46
学名	46
克力	46
讓他	46
轉為	46
傑出	46
敌人	46
刺史	46
王朱	46
校舍	46
常委会	46
市镇	46
迪士尼	46
東北部	46
血管	46
的时	46
升任	46
▁尼	46
▁My	46
▁華	46
背叛	46
奥林匹克	46
无锡	46
的人物	46
iro	46
路徑	45
希爾	45
多項	45
ember	45
uth	45
了自己的	45
頒發	45
的模式	45
AI	45
▁im	45
▁Christ	45
籌備	45
ED	45
录音	45
▁羅	45
回收	45
隨機	45
ision	45
▁毛	45
uch	45
毫無	45
亞歷	45
outh	45
▁Mart	45
夫妻	45
障碍	45
"。	45
现为	45
真菌	45
遷往	45
的香港	45
南至	45
年完成	45
率為	45
动车	45
色情	45
ze	45
房间	45
表彰	45
開發的	45
早上	45
死去	45
前來	45
打敗	45
pha	45
DC	45
認證	45
辦公	45
金門	45
裁判	45
▁赵	45
金曲	45
ō	45
UL	45
省委	45
width	45
島的	45
铁道	45
夫的	45
路口	45
旋转	45
毒品	45
编剧	45
傑克	45
大獎賽	45
的石	44
umb	44
火焰	44
▁Car	44
競技	44
林斯	44
▁Amer	44
▁Se	44
檢察	44
新星	44
開始在	44
星球	44
這場	44
克森	44
ool	44
傳奇	44
容器	44
客運	44
景點	44
卡罗	44
evelop	44
angu	44
DR	44
卫队	44
民黨	44
前線	44
▁國	44
年及	44
吉祥	44
傷害	44
炸彈	44
尼古	44
水面	44
該地	44
师长	44
采访	44
▁第五	44
战胜	44
▁莫	44
▁福	44
敘利亞	44
滅絕	44
▁九	44
駕駛	44
退役	44
▁普	44
他于	44
邙	44
留守	44
延长	44
工作室	44
夕法	44
在阿	44
弗拉	44
在被	44
Ed	44
▁Museum	44
▁colspan	44
▁赫	43
诺夫	43
▁It	43
arles	43
▁Per	43
▁that	43
Con	43
rist	43
ied	43
服裝	43
發行的	43
观看	43
▁No	43
消防	43
來往	43
出入	43
太郎	43
官兵	43
前進	43
La	43
波特	43
加利福	43
用地	43
的青	43
假期	43
号的	43
OC	43
维斯	43
拿到	43
總統府	43
改成	43
被任命为	43
大廈	43
要塞	43
山大	43
有期徒刑	43
期徒刑	43
放大	43
era	43
TR	43
分局	43
出境	43
過世	43
▁City	43
山上	43
▁山	43
大使馆	43
饰演	43
大聯盟	43
â	43
堡的	43
提琴	43
▁帕	43
icus	43
EV	43
季後賽	43
ana	42
▁are	42
▁Im	42
▁Br	42
▁Met	42
lev	42
▁Group	42
▁Assoc	42
ures	42
場地	42
Pr	42
▁Net	42
後在	42
部位	42
科技大學	42
波尔	42
à	42
邊緣	42
體內	42
標記	42
▁瓦	42
快樂	42
同事	42
修復	42
是位於	42
航空母艦	42
國防部	42
EL	42
icle	42
两名	42
夫妇	42
烈士	42
EP	42
roup	42
成立於	42
▁Institute	42
衣服	42
被指	42
隸屬	42
馬里	42
黄色	42
武士	42
英尺	42
控股	42
園區	42
列車	42
登山	42
摧毀	42
节度使	42
在任	42
马斯	42
情人	42
考入	42
▁花	42
毕业于	42
魁北	42
球场	42
官至	42
利尼	42
▁Serv	42
ave	41
老师	41
urope	41
吏部	41
▁Inter	41
ula	41
▁電影	41
海姆	41
搭配	41
歌詞	41
與他	41
員工	41
才會	41
增強	41
的數據	41
貨物	41
隸屬於	41
ars	41
è	41
▁William	41
▁雷	41
姊妹	41
天使	41
▁Wal	41
▁波	41
權益	41
手術	41
降落	41
移除	41
▁Ag	41
就读	41
在該	41
轄區	41
博士学位	41
Wh	41
▁所有	41
SB	41
▁Part	41
波士頓	41
....	41
参与了	41
获奖	41
纳尔	41
獲勝	41
骑兵	41
博覽	41
圣母	41
電車	41
料理	41
立法會	41
拘留	41
奧林匹克	41
面積為	41
公司在	41
集結	41
最強	41
ake	41
同名	41
樂壇	41
▁歌	41
是印度	41
馬其頓	41
流浪	41
CR	41
奥斯卡	41
硬币	41
東區	41
的雙	41
聖母	41
根廷	41
出局	41
▁每	40
▁At	40
的朋友	40
ubl	40
特雷	40
第二次世界大	40
▁Ev	40
EE	40
David	40
室內	40
黎明	40
會以	40
ank	40
ür	40
變更	40
不想	40
網上	40
▁因為	40
ara	40
他還	40
操控	40
星等	40
綠色	40
並成為	40
手术	40
珊瑚	40
河川	40
橄榄	40
二等	40
時尚	40
首部	40
年获	40
che	40
参谋	40
上訴	40
委託	40
內政	40
家族的	40
酒精	40
组长	40
wo	40
開通	40
司徒	40
费用	40
手下	40
宇航	40
前方	40
▁同年	40
美食	40
州人	40
創下	40
▁萬	40
作詞	40
团长	40
指揮官	40
立委	40
收費	40
運營	40
▁何	40
▁月	40
历任	40
加爾	40
參賽者	40
谢尔	40
布列	40
臺南	40
▁蔡	40
rowspan	40
的長	39
积分	39
种子	39
nd	39
▁Paul	39
Sch	39
戰術	39
〉,	39
ute	39
▁La	39
法学	39
aul	39
On	39
▁z	39
診斷	39
塔尼	39
▁Project	39
因此被	39
氣壓	39
oot	39
中将	39
ior	39
廢止	39
舉辦的	39
加利	39
田中	39
监管	39
高層	39
曾於	39
玩具	39
▁Cor	39
友人	39
把他	39
辦事	39
辦事處	39
的兒子	39
举办的	39
BO	39
之旅	39
▁Cat	39
見到	39
▁太	39
埃塞	39
聽到	39
飞行员	39
球的	39
之歌	39
失望	39
▁郭	39
南端	39
终点	39
▁石	39
军长	39
驾驶	39
航站楼	39
托夫	39
莱茵	39
▁光緒	39
全身	39
ola	39
ala	39
ward	38
arn	38
巴特	38
earch	38
說話	38
ship	38
▁Journal	38
▁Hist	38
冒險	38
犧牲	38
硕士	38
▁School	38
下属	38
時會	38
▁le	38
年獲	38
彩虹	38
裡面	38
▁Reg	38
頁面	38
员工	38
可惜	38
栽培	38
UR	38
防疫	38
巡回	38
專案	38
暂时	38
行走	38
格蘭	38
領事	38
胡同	38
萬元	38
大阪	38
》,《	38
SD	38
CE	38
▁相	38
青海省	38
行駛	38
報道	38
射击	38
新任	38
是臺灣	38
黃色	38
溫泉	38
航線	38
斯洛伐克	38
在與	38
IE	38
出演	38
當日	38
站是	38
童年	38
头衔	38
ini	38
縣的	38
佛羅	38
路上	38
会议员	38
年幼	38
阿斯	38
▁英	37
艾爾	37
É	37
ille	37
场景	37
DD	37
正規	37
展出	37
▁Rec	37
相較	37
未來的	37
里昂	37
教導	37
隔離	37
政法	37
級的	37
體驗	37
卡羅	37
羅馬天主教	37
官方網站	37
▁埃	37
大學生	37
翰林	37
皮膚	37
水深	37
室内	37
波音	37
ense	37
▁吳	37
監視	37
亚美尼亚	37
南極	37
下載	37
甲基	37
和他	37
徭	37
工部	37
曾為	37
▁京	37
领事	37
山下	37
撞击	37
後續	37
▁Law	37
选手	37
萨拉	37
停留	37
簽約	37
萬張	37
卑斯	37
提醒	37
米兰	37
日凌晨	37
奉命	37
重修	37
、、、、	37
赢得了	37
講述	37
戰士	37
▁聖	37
安妮	37
希特	36
瑞克	36
▁Cont	36
▁ac	36
之用	36
獲獎	36
ç	36
多利亚	36
ines	36
Am	36
劇中	36
紀錄片	36
資深	36
斯德	36
▁El	36
偶然	36
別人	36
小心	36
遺跡	36
▁維	36
ange	36
克爾	36
厄尔	36
症狀	36
搭乘	36
中止	36
財務	36
ush	36
日宣布	36
大使館	36
row	36
日开始	36
同學	36
共用	36
US	36
已於	36
最終在	36
高等法院	36
洞穴	36
故障	36
最近的	36
迪斯	36
但因為	36
竞技	36
DF	36
战区	36
德军	36
混凝土	36
出色	36
ena	36
教室	36
大區	36
切尔	36
她们	36
建筑面积	36
尼亞州	36
iver	35
ives	35
的家庭	35
ander	35
剧情	35
影評	35
曲目	35
OK	35
對他	35
爾摩	35
erc	35
培訓	35
會計	35
及後	35
aria	35
ution	35
的女儿	35
oun	35
acter	35
富豪	35
TA	35
▁sp	35
特尔	35
同月	35
吉隆坡	35
水泥	35
收購	35
My	35
專用	35
恐懼	35
黨籍	35
規格	35
amily	35
站和	35
田径	35
個性	35
研究室	35
選區	35
林匹	35
▁Park	35
斯拉	35
遇难	35
西侧	35
眾人	35
分公司	35
▁Sec	35
▁該	35
助手	35
《》。	35
▁松	35
一所	35
▁洪	35
山口	35
導彈	35
曾于	35
國中	35
队的	35
參賽	35
加利福尼亞州	35
佛羅里達	35
打開	35
(?	35
ú	35
氩	35
idth	35
哈利	35
IST	35
所使用	34
▁Mor	34
契約	34
ble	34
ones	34
isch	34
ira	34
LA	34
ster	34
学士	34
塔克	34
開辦	34
船隻	34
氘	34
骨骼	34
升降	34
負責人	34
OP	34
直升	34
公益	34
周末	34
羽毛球	34
残疾	34
明尼	34
摇滚	34
青山	34
巡迴	34
ih	34
全力	34
靈感	34
子公司	34
▁莱	34
巴里	34
▁格	34
獨自	34
日記	34
三星	34
承受	34
教练	34
三重	34
小孩	34
努斯	34
沖繩	34
▁II	34
克雷	34
嫌疑	34
女孩	34
封面	34
▁Mal	34
治所在	34
底部	34
▁徐	34
下水	34
兵部	34
办理	34
奧斯卡	34
背面	34
監製	34
参赛	34
-),	34
▁【	34
患有	34
▁梅	34
burg	34
特蘭	34
▁貝	34
por	33
跟随	33
▁it	33
oe	33
rid	33
▁Inc	33
過往	33
ker	33
▁Act	33
▁col	33
單元	33
書店	33
外觀	33
販售	33
阿克	33
鄉村	33
後來在	33
一點	33
reen	33
奇怪	33
生長	33
//	33
潜艇	33
的河流	33
護照	33
男孩	33
OL	33
ows	33
毕业后	33
江湖	33
據點	33
後因	33
鐵道	33
離婚	33
螢幕	33
atch	33
col	33
難民	33
原址	33
rol	33
经理	33
騎兵	33
的一条	33
东侧	33
座位	33
是香港	33
奥运	33
原定	33
阿拉斯	33
防衛	33
財團	33
創意	33
比赛中	33
oul	33
生意	33
餐廳	33
前去	33
有一座	33
遊戲的	33
滑冰	33
伊藤	33
▁House	33
年夏季奥林匹克运动会	33
塞纳	33
铁路局	33
之王	33
纵队	33
政治委员	33
墓地	33
特朗普	33
那州	33
衛隊	33
机车	33
琳娜	33
陣亡	33
個案	33
卡斯蒂	33
男爵	33
▁he	33
下方	33
年球季	33
射手	33
▁var	33
這座	33
學名	32
▁Hall	32
oom	32
ane	32
▁Val	32
給了	32
ternational	32
ept	32
Pl	32
的演出	32
▁en	32
irt	32
草地	32
防空	32
嬰兒	32
為每	32
Car	32
Android	32
映射	32
inus	32
,),	32
頭銜	32
帆船	32
布置	32
副都	32
台南	32
And	32
ux	32
交付	32
ico	32
炆	32
金剛	32
新人	32
族自治区	32
婚禮	32
任命為	32
並被	32
人間	32
照顧	32
隊伍	32
该市	32
一號	32
大队	32
影視	32
游戏的	32
旗下的	32
次數	32
山谷	32
分部	32
东风	32
電氣	32
火炮	32
该校	32
区间	32
佛罗里达	32
巴伐	32
之神	32
美術館	32
葡萄牙语	32
的女兒	32
是德国	32
鄴	32
將他	32
列斯	32
帕克	32
毀滅	32
殺人	32
的母親	32
党组	32
▁愛	32
▁Team	32
佛罗	32
;"	31
aut	31
巴克	31
Jo	31
▁Univers	31
MV	31
製作的	31
曝光	31
ike	31
▁女	31
ops	31
封閉	31
薩拉	31
薩斯	31
畢業後	31
萨斯	31
ora	31
他於	31
可由	31
气压	31
yc	31
心臟	31
▁红	31
监视	31
練習	31
HO	31
寄生	31
配備	31
栖息	31
戰鬥機	31
▁我	31
▁塔	31
往返	31
逃離	31
職員	31
記者會	31
參觀	31
年获得	31
爵位	31
▁沈	31
功率	31
公演	31
手的	31
知府	31
公務員	31
松山	31
工作人员	31
手持	31
▁sh	31
日開始	31
政治部主任	31
想到	31
九龍	31
射擊	31
昭和	31
(;),	31
You	31
時裝	31
塞尔维亚	31
鳳凰	31
最後的	31
伊丽莎白	31
主播	31
另一位	31
入球	31
▁Tim	30
uel	30
aster	30
▁art	30
och	30
▁Sm	30
▁un	30
▁res	30
屬性	30
釋出	30
ason	30
rew	30
火力	30
閃電	30
標本	30
▁()	30
reg	30
Ne	30
▁http	30
將於	30
▁今	30
」「	30
棲息	30
村庄	30
岛上	30
製的	30
數為	30
電視節目	30
場景	30
AG	30
月中	30
▁沙	30
合約	30
▁於	30
yg	30
修道院	30
导师	30
東南部	30
時被	30
这座	30
是台灣	30
台中	30
标本	30
Ste	30
四位	30
巡撫	30
高雄市	30
讓人	30
纪录片	30
▁蘇	30
lor	30
rac	30
月開始	30
省长	30
ious	30
唱片公司	30
相遇	30
克兰	30
除此	30
面具	30
的弟弟	30
塔爾	30
撾	30
局长	30
BD	30
加利福尼亚州	30
最後在	30
AX	30
年上映	30
同為	30
尼爾	30
ô	30
初次	30
发售	30
因病	30
回來	30
客戶	30
▁位於	30
英寸	30
`	30
勳章	30
星期六	30
<0xC9>	30
領隊	30
現已	29
▁We	29
▁Res	29
▁Up	29
▁Er	29
ecial	29
▁News	29
是意大利	29
ird	29
与此	29
uck	29
合併為	29
操縱	29
外表	29
起點	29
暂停	29
▁King	29
米勒	29
斯科特	29
懷孕	29
杲	29
公頃	29
證券	29
環球	29
謀殺	29
得分	29
年於	29
els	29
AB	29
illa	29
疑似	29
暫停	29
深夜	29
rown	29
▁田	29
過後	29
蝙蝠	29
全線	29
冠状	29
有線	29
克蘭	29
FF	29
▁Mil	29
上空	29
清真	29
街頭	29
升格為	29
東側	29
桃園	29
下轄	29
省道	29
尾巴	29
▁皮	29
運送	29
放送	29
▁七	29
ipp	29
白金	29
ij	29
村落	29
û	29
ani	29
阿尔卑斯	29
▁比	29
老虎	29
走了	29
育有	29
SL	29
SO	29
屬的	29
德川	29
兩側	29
▁名	29
EG	29
哈根	29
吉他手	29
球季	29
德利	28
ally	28
虛構	28
▁Can	28
aur	28
▁am	28
▁von	28
分布於	28
海平面	28
專科	28
補助	28
▁Hol	28
GO	28
出品	28
利物浦	28
灰色	28
英鎊	28
月刊	28
軍方	28
大将军	28
訢	28
客车	28
電影節	28
网球	28
足球运动员	28
UP	28
奖章	28
迪亞	28
本名	28
島上	28
營業	28
和第	28
慕容	28
支队	28
樂園	28
董事長	28
加入中国共产党	28
候選	28
行政中心	28
斯州	28
已故	28
罘	28
建造的	28
派往	28
勇士	28
裁定	28
旅程	28
西兰	28
▁You	28
配音	28
崇禎	28
姐姐	28
ê	28
烴	28
印地安	28
不敵	28
女生	28
一郎	28
ondon	28
<0xC7>	28
ugh	27
unn	27
角色的	27
奇幻	27
全長	27
ents	27
販賣	27
出道	27
於香港	27
ife	27
err	27
oogle	27
變形	27
昆蟲	27
和人口	27
第二名	27
高等學校	27
體育館	27
SC	27
則於	27
延至	27
披露	27
金額	27
演藝	27
变种	27
年至今	27
oad	27
日由	27
路段	27
和歌	27
▁Go	27
出入口	27
原創	27
當初	27
波爾	27
格兰	27
主唱	27
首歌	27
▁ne	27
穿著	27
新村	27
换乘	27
名古屋	27
因在	27
梅克	27
卡通	27
签约	27
議席	27
復活	27
日以	27
arch	27
德堡	27
Br	27
ever	27
倫多	27
但後來	27
▁潘	27
▁麥	27
喬治亞	27
<0xC5>	27
<0xD8>	27
聯賽冠軍	27
基斯坦	27
yt	26
El	26
unic	26
的公司	26
評審	26
illiam	26
▁天主教	26
時空	26
流星	26
地中	26
潛艇	26
體育場	26
▁Ob	26
一職	26
飯店	26
於同年	26
MB	26
erry	26
之家	26
逃走	26
宇文	26
▁方	26
超市	26
大学教授	26
任命为	26
方向的	26
環保	26
觀音	26
ов	26
勣	26
HD	26
全程	26
部電影	26
分手	26
Qu	26
售票	26
參與了	26
屍體	26
級別	26
南侧	26
大王	26
晋升	26
战队	26
▁Cap	26
通勤	26
伊州	26
憤怒	26
勇者	26
raph	26
夜間	26
發言人	26
wit	26
MC	26
菲爾德	26
行人	26
亚历	26
牠們	26
<0xC8>	26
面體	26
颶風	26
凌晨	26
委副书记	26
useum	26
时间为	25
▁米	25
魔法	25
▁Med	25
''	25
ros	25
▁它	25
▁Techn	25
道具	25
比賽中	25
镜头	25
XX	25
PP	25
更換	25
▁總	25
事中	25
年期間	25
種子	25
一至	25
普里	25
▁中華	25
失蹤	25
人大代表	25
媽祖	25
大賽	25
巨人	25
的一名	25
igh	25
們的	25
中午	25
一艘	25
翌日	25
改任	25
中路	25
日於	25
遇上	25
現為	25
柴油	25
雄性	25
拓跋	25
煬	25
四名	25
起飛	25
)/	25
▁Bro	25
Par	25
雲林	25
ano	25
装甲	25
候选	25
日公布	25
她是	25
翻唱	25
為主題	25
î	25
oman	25
uz	25
日向	25
该公司	25
锷	25
电动	25
進士	25
itz	25
西蘭	25
洛特	25
贝格	25
擅長	25
翰林院	25
JR	25
▁sc	25
外郎	25
ister	25
助攻	25
選秀	25
▁Boy	24
摩根	24
All	24
BL	24
舞台劇	24
錄音	24
▁奧	24
中文大學	24
德華	24
Fl	24
aint	24
▁特	24
HE	24
博士學位	24
韃	24
山縣	24
擴建	24
Col	24
採訪	24
山路	24
▁was	24
增設	24
瑭	24
靺	24
鞨	24
餐厅	24
上行	24
Met	24
首歌曲	24
斯頓	24
▁青	24
▁于	24
停靠	24
精選	24
維多	24
村莊	24
魯斯	24
國家足球隊	24
百合	24
紫色	24
村民	24
水晶	24
經理	24
iam	24
菲利	24
逃跑	24
ò	24
北海道	24
沩	24
謇	24
龢	24
筮	24
EF	24
立法會議員	24
Don	24
▁Girl	24
▁rowspan	24
射入	24
全新	23
▁康	23
▁Rad	23
可以指	23
icial	23
部曲	23
鏡頭	23
DVD	23
填詞	23
obert	23
▁Pal	23
復仇	23
电池	23
觀賞	23
人口数量	23
哥伦	23
海拔高度	23
西側	23
体操	23
▁Chan	23
硕士学位	23
Tr	23
VID	23
秘魯	23
(,)	23
级联赛	23
ope	23
屯門	23
碼頭	23
總監	23
文化部	23
公車	23
閭	23
臺中	23
郵政	23
更换	23
▁萨	23
Σ	23
级行政单位	23
队长	23
預定	23
As	23
▁塞	23
三郎	23
終點	23
紇	23
聃	23
蒯	23
š	23
專屬	23
AF	23
▁里	23
ida	23
ao	23
肯塔基州	23
ets	23
火災	23
▁se	23
蟜	23
oma	23
足協	23
號線	23
ра	23
大林	23
ura	22
录制	22
DJ	22
業者	22
ats	22
后勤	22
保育	22
皮肤	22
DE	22
OD	22
病毒病	22
發電廠	22
微博	22
指挥官	22
採用的	22
ove	22
受害	22
容納	22
Super	22
切爾	22
▁真	22
其中一種	22
▁Pat	22
改制為	22
平日	22
期待	22
清晨	22
延期	22
ima	22
局局長	22
ider	22
库尔	22
拘捕	22
▁博	22
維修	22
事務所	22
石坑	22
頭的	22
奈良	22
北侧	22
巴伐利亚	22
重点文物保护单位	22
炮兵	22
布蘭	22
珍妮	22
日晚上	22
出生在	22
配樂	22
▁May	22
導師	22
縣長	22
軻	22
泰因	22
AKB	22
場比賽	22
鈴木	22
晉級	22
ersion	21
iana	21
chn	21
普森	21
PR	21
▁website	21
隱藏	21
月台	21
stit	21
rey	21
追蹤	21
電池	21
▁台	21
▁Dr	21
ross	21
全日	21
▁Kong	21
认证	21
接手	21
鳥類	21
深水	21
Red	21
起訴	21
局局长	21
每週	21
風雲	21
▁Mag	21
ita	21
搜查	21
所长	21
譞	21
蔡英文	21
演唱会	21
本作	21
嘉義	21
國道	21
購物	21
地獄	21
空降	21
副书记	21
部副部长	21
▁主	21
全數	21
南投	21
市鎮	21
羅夫	21
沙田	21
二甲	21
二級	21
教區	21
西拉	21
升為	21
警察局	21
超人	21
動工	21
屏幕	21
戀愛	21
少将	21
首爾	21
ada	21
aud	21
yr	21
▁Live	21
刑部	21
板橋	21
驪	21
DS	21
高橋	21
▁High	20
osa	20
唱歌	20
機器人	20
▁Bo	20
ournal	20
短片	20
錄製	20
標題	20
▁約翰	20
Å	20
外圍	20
▁Av	20
Ab	20
▁雙	20
HK	20
單車	20
宮崎	20
是英國	20
兄長	20
綁架	20
▁Enter	20
LC	20
淝	20
▁泰	20
示威者	20
為日本	20
县人	20
民主派	20
內政部	20
中途	20
й	20
打入	20
突擊	20
anth	20
OW	20
張專輯	20
音樂會	20
佐藤	20
ū	20
特朗	20
rem	20
▁索	20
海道	20
祆	20
维修	20
擧	20
而該	20
戰機	20
总经理	20
日前	20
網友	20
的成績	20
处长	20
▁Sal	20
身邊	20
For	20
瘋狂	20
為該	20
氚	20
苗栗	20
UE	20
停车	20
學生會	20
伊利諾	20
確診	20
yst	20
GC	20
UC	20
落敗	20
场比赛	20
劇團	20
麵包	19
▁廣	19
▁無	19
貨運	19
Twitter	19
INE	19
ube	19
交通部	19
守護	19
Mag	19
縻	19
中村	19
賽的	19
地產	19
海盜	19
北起	19
主題曲	19
裝甲	19
茨克	19
直通	19
參加了	19
房間	19
港鐵	19
PG	19
年歐洲	19
识字	19
接力	19
副使	19
優惠	19
进士	19
阗	19
議長	19
機動	19
任中共	19
兗	19
ama	19
市立	19
一枚	19
知縣	19
車身	19
體重	19
西區	19
▁東京	19
SK	19
合體	19
頭髮	19
少將	19
uro	19
臏	19
ст	19
錄影	19
▁卷	19
Station	19
錦標	19
Play	19
颙	19
川縣	19
▁饰	19
▁Af	18
大利	18
熱門	18
urg	18
發生於	18
▁紅	18
ί	18
薩斯州	18
的山峰	18
區間	18
身高	18
冠状病毒病	18
该省	18
社長	18
當晚	18
搭載	18
,)	18
亶	18
下行	18
歷任	18
球运动员	18
榮獲	18
发动机	18
▁戴	18
屏東	18
▁di	18
队员	18
角逐	18
ocal	18
▁Love	18
▁龍	18
燾	18
ords	18
oto	18
天水	18
羽毛	18
编组	18
修道	18
本次	18
是德國	18
陸戰隊	18
賽中	18
▁site	18
М	18
日舉行	18
法兰	18
▁fl	18
彈藥	18
女友	18
ɛ	18
́	18
▁蒙	18
А	18
CT	18
模特	18
Game	18
史密	18
구	18
역	18
ล	18
頒獎	17
oon	17
Se	17
數碼	17
usic	17
雷達	17
气旋	17
處長	17
设置的	17
為香港	17
重型	17
播出的	17
Facebook	17
屋頂	17
orts	17
橫濱	17
劻	17
沔	17
山本	17
成化	17
縊	17
西接	17
蝴蝶	17
▁П	17
馬達	17
配备	17
▁〈	17
▁崔	17
編曲	17
比特	17
的一所	17
山站	17
赛中	17
訇	17
图尔	17
直流	17
通报	17
党组书记	17
星光	17
利桑	17
流經	17
FM	17
改編自	17
年度最佳	17
GM	17
▁施	17
殺手	17
▁民國	17
女士	17
vent	17
▁du	17
▁Red	17
長大	17
幕後	17
韞	17
郎中	17
▁《》(	17
CA	17
血型	17
▁del	17
的小行星	17
波士	17
局長	17
後衛	17
上校	17
SBS	17
amil	16
廟宇	16
▁Mark	16
航空母	16
就读于	16
感謝	16
該校	16
選拔	16
得獎	16
uf	16
戰車	16
苴	16
冑	16
弘治	16
正德	16
濰	16
開播	16
ival	16
调任	16
彰化	16
В	16
轟炸機	16
▁Japan	16
臺東	16
NHK	16
從小	16
無綫電視	16
頒獎典禮	16
蒙山	16
住院	16
傈	16
僳	16
集团军	16
开行	16
所属的	16
行車	16
夢想	16
入圍	16
亞軍	16
首映	16
▁Ann	16
塞拜疆	16
等职	16
前鋒	16
▁趙	16
NE	16
OV	16
卡的	16
制服	16
東尼	16
寵物	16
讒	16
獅子	16
股東	16
是一家	16
的妹妹	16
德森	16
О	16
足球聯賽	16
藤原	16
讖	16
▁align	16
溆	16
祧	16
莉絲	16
azine	15
哥倫	15
CS	15
賽馬	15
車的	15
▁Ver	15
―	15
▁富	15
;)	15
FL	15
機組	15
次郎	15
連載	15
止於	15
韦尔	15
救出	15
侂	15
萬曆	15
▁星	15
执导	15
系主任	15
佔地	15
臺中市	15
財經	15
步槍	15
國小	15
新台幣	15
亞洲電視	15
遊戲中	15
特林	15
按察	15
鄯	15
路站	15
郯	15
动车组	15
爨	15
Co	15
告示牌	15
新界	15
足联	15
播映	15
ump	15
К	15
收錄於	15
之星	15
車廂	15
年電影	15
▁沃	15
見面	15
(;)	15
<0xCC>	15
警務	15
加勒	15
RA	15
Δ	15
副教授	15
乌鲁	15
urch	15
佺	15
鍶	15
副部长	15
儁	15
uy	15
莉亞	15
本屆	15
投手	15
ท	15
戲院	14
老闆	14
時段	14
的绝对	14
額外	14
收錄了	14
▁超	14
德华	14
HR	14
研究员	14
中式	14
巡航	14
▁Street	14
神戶	14
纥	14
昺	14
鶻	14
秀吉	14
琿	14
北市	14
年冬季	14
花蓮	14
代表隊	14
ł	14
▁霍	14
司機	14
▁TV	14
环形	14
出场	14
錄影帶	14
分組	14
知县	14
足球甲	14
演技	14
一角	14
银牌	14
神奈	14
身材	14
单曲	14
勁歌金曲	14
是俄羅斯	14
印地	14
为法国	14
飓风	14
▁III	14
偵察	14
結局	14
登場	14
為台灣	14
牙齒	14
北側	14
ɕ	14
是西班牙	14
ɑ	14
指挥部	14
追踪	14
地下鐵	14
osp	14
▁Ass	14
郃	14
轉乘	14
泽尔	14
坐标为	14
轉會	14
科罗	13
▁Min	13
ό	13
▁鄭	13
明日	13
紅外線	13
ideo	13
最高點	13
網民	13
IO	13
畢業於	13
該公司	13
一輛	13
iy	13
長崎	13
富士	13
重傷	13
號碼	13
UB	13
ã	13
總經理	13
俶	13
ION	13
其中男性	13
▁盧	13
鎢	13
国家队	13
百貨	13
aker	13
受損	13
對戰	13
▁Club	13
大賞	13
購入	13
媽媽	13
幫忙	13
渡邊	13
該片	13
田市	13
赉	13
地利	13
崃	13
座堂	13
亚种	13
納州	13
KBS	13
經紀	13
<0xEB>	13
緲	13
亮相	13
編入	13
ilver	13
ebsite	13
出戰	13
寫真	13
陣容	13
擔當	13
。[	13
ì	13
駢	13
恂	13
宜蘭	13
幹線	13
賽冠軍	13
uper	13
林中	13
总监	13
惲	13
行李	13
eck	13
平成	13
ù	13
Š	13
SH	13
围绕太阳	13
ground	13
魔術	13
氣旋	13
gcolor	13
獎金	12
夫卡	12
▁野	12
▁Award	12
朗德	12
ή	12
▁葉	12
▁id	12
團的	12
山坡	12
铍	12
日圓	12
爸爸	12
YouTube	12
:。	12
ING	12
理事長	12
山田	12
鋇	12
奭	12
穰	12
塽	12
公安局	12
穆罕默	12
公務	12
停播	12
▁С	12
戰艦	12
▁她	12
晚間	12
ζ	12
好評	12
▁Tour	12
牂	12
幼稚	12
铊	12
小林	12
不敌	12
亚军	12
吉他	12
卻被	12
AK	12
企劃	12
週刊	12
顒	12
驤	12
潁	12
一隻	12
确诊	12
合共	12
大正	12
一班	12
停車場	12
頭部	12
THE	12
勗	12
在場	12
怪物	12
胞胎	12
▁off	12
苾	12
ни	12
▁Star	12
ñ	12
肯塔基	12
▁Official	12
千葉	12
燬	12
!(	12
ห	12
ิ	12
∈	12
ilm	11
evel	11
▁Sing	11
▁Instit	11
担当	11
iety	11
』(	11
ύ	11
關節	11
改裝	11
是巴西	11
偵探	11
守備	11
錕	11
一間	11
钋	11
機體	11
顓	11
縉	11
马山	11
次於	11
ridge	11
命中	11
原作	11
徒刑	11
И	11
朝日	11
大埔	11
商場	11
台視	11
嘉賓	11
首播	11
交會	11
▁許	11
EST	11
璠	11
胪	11
铜牌	11
毛泽	11
總站	11
途經	11
Н	11
文庫	11
瓘	11
▁Ho	11
进球	11
分店	11
電梯	11
狙擊	11
魔女	11
無綫	11
的一家	11
<0xEC>	11
邊為	11
CV	11
蚋	11
▁佐	11
飭	11
副局长	11
RO	11
▁с	11
У	11
氬	11
物語	11
久保	11
新幹線	11
年毕业于	11
round	11
()(	11
蠲	11
<0xC2>	11
≠	11
俱乐	11
TBS	11
ว	11
ั	11
準決賽	11
▁ro	10
護理	10
-(	10
覲	10
▁https	10
研究小组	10
该党	10
英超	10
開業	10
互联	10
倮	10
璦	10
沿線	10
威力	10
衽	10
褐色	10
主教练	10
嘉義縣	10
金鐘	10
ά	10
ки	10
瞬間	10
VD	10
株式	10
惡魔	10
隊員	10
出場	10
第一季	10
仡	10
站至	10
主打	10
文物保护	10
闐	10
騫	10
田村	10
劇集	10
先發	10
討厭	10
足球隊	10
耳曼	10
普鲁	10
▁(),	10
聯會	10
▁Air	10
MBC	10
片尾	10
ń	10
直升機	10
毬	10
臺南市	10
桃園市	10
日間	10
國家隊	10
車道	10
新設	10
埼玉	10
tainment	10
支線	10
倣	10
恽	10
年在位	10
]]	10
追加	10
Ö	10
收視率	10
oung	10
ǎ	10
湣	10
年級	10
搭檔	10
ق	10
隊友	10
新宿	10
姊姊	10
體型	10
出賽	10
砵	10
薺	10
連續劇	9
▁凱	9
電動	9
熱帶氣旋	9
尼诺	9
鬲	9
驱逐舰	9
瞄準	9
司司	9
廣島	9
疍	9
第二季	9
roid	9
專員	9
澶	9
新冠	9
是一款	9
班次	9
公開賽	9
(、	9
精靈	9
人氣	9
男友	9
龍的	9
对阵	9
ensis	9
氣象局	9
小巴	9
貉	9
蜑	9
垓	9
鏐	9
▁川	9
亞美	9
衛視	9
井上	9
主打歌	9
司机	9
楙	9
蜘蛛	9
ɪ	9
獵人	9
插曲	9
oft	9
搜寻	9
ʊ	9
怛	9
謫	9
全台	9
灃	9
第一百	9
嶷	9
逋	9
irl	9
Б	9
ел	9
на	9
flix	9
塔基	9
鉞	9
夏令时	9
目前尚未	9
▁Lim	9
▁萊	9
月任	9
å	9
塞拜	9
全壘打	9
巴士路線	9
▁赤	9
Ε	8
έ	8
щ	8
恐龍	8
腹部	8
牵引	8
中環	8
完結	8
來越	8
日發行	8
ï	8
穆斯	8
頊	8
贽	8
重播	8
彰化縣	8
組長	8
縣人	8
綜藝	8
頒獎禮	8
磴	8
▁佩	8
翻新	8
流域面積	8
鐫	8
空調	8
低氣壓	8
一小時	8
光之	8
續集	8
預告	8
ael	8
卢瓦尔	8
œ	8
▁飾	8
影業	8
<0xCE>	8
<0xED>	8
下辖的一个	8
交流道	8
昰	8
卽	8
竑	8
該地的	8
þ	8
!》	8
吸血鬼	8
色列	8
巴勒	8
Ü	8
高清	8
南極洲	8
駙	8
團長	8
が	8
犛	8
發動機	8
โ	8
ك	8
砹	8
¬	8
ер	8
銫	8
本站	8
垸	8
ebook	7
费尔德	7
銨	7
北區	7
時區	7
綜藝節目	7
林匹克	7
也纳	7
召喚	7
日發售	7
NO	7
前作	7
圉	7
缗	7
悝	7
隗	7
大堂	7
魚類	7
人口密度每平方公里	7
觴	7
耜	7
甲板	7
機槍	7
旁白	7
▁魔	7
▁謝	7
布政	7
阯	7
昪	7
砻	7
▁迪	7
镠	7
硏	7
次列车	7
厅长	7
洺	7
IK	7
张专辑	7
獲得第	7
柯南	7
)→	7
Р	7
大隊	7
廙	7
儸	7
No	7
贄	7
灣仔	7
銅鑼	7
鄉試	7
ž	7
<0xEA>	7
瓚	7
主事	7
僉	7
站前	7
剡	7
璩	7
诒	7
辎	7
牘	7
榴彈	7
顥	7
綰	7
作畫	7
▁～	7
Á	7
出战	7
од	7
С	7
座標	7
碲	7
羰	7
出身於	7
铋	7
化学式	7
锕	7
迷你	7
代码为	7
將軍澳	7
IVE	7
織田	7
丁目	7
鈈	7
隆坡	7
<0xC3>	7
ས	7
硃	7
禩	7
洋基	7
П	7
銻	7
ог	7
旼	7
ɯ	7
站房	7
暎	7
豸	7
觀塘	7
矩阵	7
軛	7
<0xCD>	7
▁『	6
Π	6
MO	6
纘	6
銀牌	6
詒	6
祏	6
郾	6
璘	6
新冠肺炎	6
瑷	6
襦	6
襖	6
翡翠	6
眼鏡	6
Л	6
參演	6
巡迴演唱會	6
埭	6
雩	6
榘	6
米至	6
三甲	6
妖怪	6
泺	6
曷	6
總教區	6
▁赛	6
級聯賽	6
佾	6
대	6
富士電視台	6
接壤的	6
進黨	6
闼	6
殿試	6
薮	6
富汗	6
諴	6
寶貝	6
撣	6
澂	6
軫	6
砦	6
鱼雷	6
龑	6
礬	6
衊	6
鮫	6
里達	6
鄄	6
阊	6
習性	6
耶尔	6
物浦	6
YO	6
庑	6
士尼	6
Đ	6
ĩ	6
Ä	6
̃	6
Λ	6
ı	6
玕	6
أ	6
星人	6
▁故事	6
株式會社	6
怪獸	6
上陣	6
♭	6
闿	6
立陶	6
鐵路車站	6
嵗	6
甑	6
神社	6
ะ	6
ค	6
甲組	6
瑈	6
Ю	6
逖	5
俱樂	5
夏令	5
萜	5
该物种	5
砀	5
居委会	5
加油	5
瓩	5
中學校	5
Α	5
ą	5
的城鎮	5
蘅	5
鲵	5
歿	5
假面騎士	5
本地區	5
她曾	5
▁最佳	5
汊	5
镞	5
郗	5
泚	5
苎	5
的特有	5
铟	5
钹	5
坻	5
交匯	5
亚美	5
淸	5
片尾曲	5
中飾演	5
鍇	5
位于法国	5
慕尼	5
停車	5
Θ	5
粉絲	5
鋯	5
舉人	5
壠	5
鯤	5
行本	5
讣	5
巡演	5
郇	5
車站大樓	5
馬場	5
唭	5
關西	5
境内共有	5
ṣ	5
燏	5
棻	5
貍	5
勰	5
禕	5
—《	5
鄣	5
鏵	5
璣	5
赛艇	5
單打	5
急行	5
TVB	5
硤	5
Д	5
ð	5
战列	5
醌	5
钍	5
ص	5
詁	5
步枪	5
隰	5
ㄩ	5
臚	5
Ø	5
闳	5
翕	5
手槍	5
摩洛	5
是一颗	5
汜	5
熱帶風暴	5
ج	5
̯	5
千代	5
麗絲	5
元朗	5
諍	5
鱲	5
∧	5
∨	5
影集	5
札幌	5
劇場版	5
幪	5
砜	5
Т	5
韫	5
猞	5
猁	5
坩	5
圹	5
拏	5
성	5
บ	5
จ	5
พ	5
ี	5
足總	5
旺角	5
reet	5
̄	5
犰	5
狳	5
